{
  "version": "1.0",
  "truncation": null,
  "padding": null,
  "added_tokens": [
    {
      "id": 0,
      "content": "[UNK]",
      "single_word": false,
      "lstrip": false,
      "rstrip": false,
      "normalized": false,
      "special": true
    },
    {
      "id": 1,
      "content": "[CLS]",
      "single_word": false,
      "lstrip": false,
      "rstrip": false,
      "normalized": false,
      "special": true
    },
    {
      "id": 2,
      "content": "[SEP]",
      "single_word": false,
      "lstrip": false,
      "rstrip": false,
      "normalized": false,
      "special": true
    },
    {
      "id": 3,
      "content": "[PAD]",
      "single_word": false,
      "lstrip": false,
      "rstrip": false,
      "normalized": false,
      "special": true
    },
    {
      "id": 4,
      "content": "[MASK]",
      "single_word": false,
      "lstrip": false,
      "rstrip": false,
      "normalized": false,
      "special": true
    }
  ],
  "normalizer": null,
  "pre_tokenizer": {
    "type": "Whitespace"
  },
  "post_processor": null,
  "decoder": null,
  "model": {
    "type": "BPE",
    "dropout": null,
    "unk_token": "[UNK]",
    "continuing_subword_prefix": null,
    "end_of_word_suffix": null,
    "fuse_unk": false,
    "byte_fallback": false,
    "ignore_merges": false,
    "vocab": {
      "[UNK]": 0,
      "[CLS]": 1,
      "[SEP]": 2,
      "[PAD]": 3,
      "[MASK]": 4,
      "!": 5,
      ",": 6,
      "0": 7,
      "1": 8,
      "2": 9,
      "3": 10,
      "4": 11,
      "5": 12,
      "6": 13,
      "7": 14,
      "8": 15,
      "9": 16,
      "?": 17,
      "ఁ": 18,
      "ం": 19,
      "ః": 20,
      "అ": 21,
      "ఆ": 22,
      "ఇ": 23,
      "ఈ": 24,
      "ఉ": 25,
      "ఊ": 26,
      "ఋ": 27,
      "ఌ": 28,
      "ఎ": 29,
      "ఏ": 30,
      "ఐ": 31,
      "ఒ": 32,
      "ఓ": 33,
      "ఔ": 34,
      "క": 35,
      "ఖ": 36,
      "గ": 37,
      "ఘ": 38,
      "ఙ": 39,
      "చ": 40,
      "ఛ": 41,
      "జ": 42,
      "ఝ": 43,
      "ఞ": 44,
      "ట": 45,
      "ఠ": 46,
      "డ": 47,
      "ఢ": 48,
      "ణ": 49,
      "త": 50,
      "థ": 51,
      "ద": 52,
      "ధ": 53,
      "న": 54,
      "ప": 55,
      "ఫ": 56,
      "బ": 57,
      "భ": 58,
      "మ": 59,
      "య": 60,
      "ర": 61,
      "ఱ": 62,
      "ల": 63,
      "ళ": 64,
      "ఴ": 65,
      "వ": 66,
      "శ": 67,
      "ష": 68,
      "స": 69,
      "హ": 70,
      "ఽ": 71,
      "ా": 72,
      "ి": 73,
      "ీ": 74,
      "ు": 75,
      "ూ": 76,
      "ృ": 77,
      "ౄ": 78,
      "ె": 79,
      "ే": 80,
      "ై": 81,
      "ొ": 82,
      "ో": 83,
      "ౌ": 84,
      "్": 85,
      "౎": 86,
      "ౖ": 87,
      "ౘ": 88,
      "ౙ": 89,
      "ౠ": 90,
      "ౡ": 91,
      "ౢ": 92,
      "౦": 93,
      "౧": 94,
      "౨": 95,
      "౩": 96,
      "౪": 97,
      "౫": 98,
      "౬": 99,
      "౭": 100,
      "౮": 101,
      "౯": 102,
      "౽": 103,
      "ని": 104,
      "్ర": 105,
      "ార": 106,
      "న్": 107,
      "స్": 108,
      "ంద": 109,
      "ర్": 110,
      "లు": 111,
      "లో": 112,
      "కు": 113,
      "్య": 114,
      "న్న": 115,
      "ంచ": 116,
      "గా": 117,
      "ను": 118,
      "ాల": 119,
      "క్": 120,
      "ట్": 121,
      "ప్ర": 122,
      "ంది": 123,
      "రి": 124,
      "డు": 125,
      "ారు": 126,
      "వి": 127,
      "ల్": 128,
      "తు": 129,
      "కి": 130,
      "చే": 131,
      "టి": 132,
      "డి": 133,
      "సి": 134,
      "ంత": 135,
      "యి": 136,
      "మా": 137,
      "రు": 138,
      "త్": 139,
      "రా": 140,
      "తి": 141,
      "లి": 142,
      "ప్": 143,
      "కా": 144,
      "వా": 145,
      "నా": 146,
      "టు": 147,
      "పు": 148,
      "ంచి": 149,
      "ము": 150,
      "నే": 151,
      "సు": 152,
      "ది": 153,
      "గు": 154,
      "లా": 155,
      "చి": 156,
      "ండ": 157,
      "ంలో": 158,
      "ద్": 159,
      "తో": 160,
      "వు": 161,
      "ంగా": 162,
      "ంట": 163,
      "కో": 164,
      "ార్": 165,
      "దు": 166,
      "సం": 167,
      "పో": 168,
      "చ్": 169,
      "పి": 170,
      "పా": 171,
      "కొ": 172,
      "లే": 173,
      "స్త": 174,
      "మి": 175,
      "ళ్": 176,
      "స్తు": 177,
      "న్ని": 178,
      "గి": 179,
      "యా": 180,
      "ష్": 181,
      "డా": 182,
      "వే": 183,
      "న్నా": 184,
      "్యా": 185,
      "డ్": 186,
      "తె": 187,
      "కే": 188,
      "దే": 189,
      "పె": 190,
      "ంగ": 191,
      "త్ర": 192,
      "దా": 193,
      "చె": 194,
      "క్ష": 195,
      "నికి": 196,
      "ందు": 197,
      "కూ": 198,
      "సా": 199,
      "ారి": 200,
      "న్నారు": 201,
      "రో": 202,
      "ధి": 203,
      "తీ": 204,
      "నీ": 205,
      "మె": 206,
      "వె": 207,
      "మీ": 208,
      "తా": 209,
      "క్క": 210,
      "మ్": 211,
      "టీ": 212,
      "్రా": 213,
      "శా": 214,
      "బా": 215,
      "ప్ప": 216,
      "పై": 217,
      "ైన": 218,
      "స్థ": 219,
      "ాల్": 220,
      "ల్ల": 221,
      "లను": 222,
      "యు": 223,
      "వచ్": 224,
      "కార": 225,
      "యం": 226,
      "ట్ట": 227,
      "తే": 228,
      "చు": 229,
      "ంతో": 230,
      "రె": 231,
      "లకు": 232,
      "భా": 233,
      "వర": 234,
      "హి": 235,
      "సీ": 236,
      "ప్పు": 237,
      "్రి": 238,
      "ళ్ళ": 239,
      "డం": 240,
      "మే": 241,
      "తన": 242,
      "ష్ట": 243,
      "వం": 244,
      "ఒక": 245,
      "వీ": 246,
      "చూ": 247,
      "కూడా": 248,
      "ండి": 249,
      "బ్": 250,
      "జా": 251,
      "గ్": 252,
      "దీ": 253,
      "ట్టు": 254,
      "తం": 255,
      "ంచారు": 256,
      "జి": 257,
      "శ్": 258,
      "చేసి": 259,
      "ద్ద": 260,
      "వ్య": 261,
      "జు": 262,
      "లీ": 263,
      "పరి": 264,
      "పే": 265,
      "నిర్": 266,
      "నం": 267,
      "సుకు": 268,
      "వర్": 269,
      "జీ": 270,
      "ప్రా": 271,
      "ంగ్": 272,
      "ారం": 273,
      "అత": 274,
      "ంటే": 275,
      "పీ": 276,
      "ల్లో": 277,
      "ంచిన": 278,
      "ట్టి": 279,
      "బు": 280,
      "ంటు": 281,
      "భార": 282,
      "ాలి": 283,
      "కీ": 284,
      "గ్రా": 285,
      "వారి": 286,
      "రం": 287,
      "మైన": 288,
      "ధా": 289,
      "హా": 290,
      "దేశ": 291,
      "ఖ్య": 292,
      "చేయ": 293,
      "మూ": 294,
      "వ్": 295,
      "మో": 296,
      "మొ": 297,
      "ారా": 298,
      "ట్లు": 299,
      "స్ట": 300,
      "అయి": 301,
      "సే": 302,
      "రే": 303,
      "ంద్ర": 304,
      "ంటి": 305,
      "క్ర": 306,
      "ధ్య": 307,
      "రూ": 308,
      "యన": 309,
      "న్నాయి": 310,
      "రీ": 311,
      "త్త": 312,
      "కాల": 313,
      "భి": 314,
      "తెలి": 315,
      "మరి": 316,
      "యో": 317,
      "వై": 318,
      "జ్": 319,
      "ంచు": 320,
      "శి": 321,
      "పూ": 322,
      "ద్య": 323,
      "కె": 324,
      "నుంచి": 325,
      "భు": 326,
      "ందుకు": 327,
      "ఉన్న": 328,
      "ాడు": 329,
      "ఆర్": 330,
      "అని": 331,
      "నె": 332,
      "సమ": 333,
      "మార్": 334,
      "య్య": 335,
      "గ్రామ": 336,
      "క్కు": 337,
      "ందని": 338,
      "్రీ": 339,
      "రిగి": 340,
      "పొ": 341,
      "ఆయన": 342,
      "20": 343,
      "సిని": 344,
      "లేదు": 345,
      "ాయి": 346,
      "అవ": 347,
      "బి": 348,
      "ండా": 349,
      "మని": 350,
      "సె": 351,
      "ణా": 352,
      "శారు": 353,
      "ాలను": 354,
      "ఆమె": 355,
      "షన్": 356,
      "ంచే": 357,
      "త్య": 358,
      "ప్రభు": 359,
      "రాజ": 360,
      "అను": 361,
      "లలో": 362,
      "ాలని": 363,
      "వాత": 364,
      "పార్": 365,
      "ప్రభుత్": 366,
      "లతో": 367,
      "రుగు": 368,
      "ప్పుడు": 369,
      "ఉంది": 370,
      "స్తున్న": 371,
      "వచ్చి": 372,
      "ంచింది": 373,
      "మ్మ": 374,
      "సినిమా": 375,
      "మన": 376,
      "అధి": 377,
      "విష": 378,
      "కోవ": 379,
      "కర్": 380,
      "న్నాడు": 381,
      "ండు": 382,
      "డే": 383,
      "బీ": 384,
      "టర్": 385,
      "మంత": 386,
      "అంత": 387,
      "ంట్": 388,
      "ఉండ": 389,
      "రోజు": 390,
      "పాటు": 391,
      "కుండా": 392,
      "పోయి": 393,
      "ణి": 394,
      "వల": 395,
      "రాష్ట": 396,
      "కలి": 397,
      "తోంది": 398,
      "గ్ర": 399,
      "ంధ": 400,
      "జన": 401,
      "ల్లా": 402,
      "మంది": 403,
      "ర్తి": 404,
      "ప్పటి": 405,
      "తెలు": 406,
      "ాలా": 407,
      "స్తా": 408,
      "చ్చి": 409,
      "దర్": 410,
      "తర": 411,
      "చేశారు": 412,
      "వరి": 413,
      "కం": 414,
      "అనే": 415,
      "లోని": 416,
      "తూ": 417,
      "ల్లి": 418,
      "గో": 419,
      "డానికి": 420,
      "సంఖ్య": 421,
      "సమా": 422,
      "వ్యా": 423,
      "డీ": 424,
      "ప్రతి": 425,
      "తున్న": 426,
      "కల": 427,
      "ులు": 428,
      "స్తూ": 429,
      "మరియు": 430,
      "షి": 431,
      "గే": 432,
      "నూ": 433,
      "రాష్ట్ర": 434,
      "కృ": 435,
      "్యూ": 436,
      "ాల్లో": 437,
      "టా": 438,
      "చిత్ర": 439,
      "ండ్": 440,
      "గొ": 441,
      "వారు": 442,
      "చెప్ప": 443,
      "పార్టీ": 444,
      "చ్చ": 445,
      "ెస్": 446,
      "ద్ధ": 447,
      "తమ": 448,
      "చర్": 449,
      "టం": 450,
      "చేసిన": 451,
      "సిన": 452,
      "కోసం": 453,
      "ంటూ": 454,
      "ఇది": 455,
      "పడి": 456,
      "ఎం": 457,
      "త్స": 458,
      "రించి": 459,
      "జే": 460,
      "స్థా": 461,
      "నుండి": 462,
      "తుంది": 463,
      "సూ": 464,
      "చాలా": 465,
      "క్తి": 466,
      "ంబ": 467,
      "శం": 468,
      "ారని": 469,
      "ఫ్": 470,
      "ట్ల": 471,
      "యంలో": 472,
      "కేంద్ర": 473,
      "మీద": 474,
      "ఎస్": 475,
      "ణం": 476,
      "మాత్ర": 477,
      "అయితే": 478,
      "మంత్రి": 479,
      "మొద": 480,
      "లాంటి": 481,
      "త్రి": 482,
      "రెండు": 483,
      "కారు": 484,
      "19": 485,
      "స్తున్నారు": 486,
      "జరిగి": 487,
      "అభి": 488,
      "బో": 489,
      "ప్పి": 490,
      "దని": 491,
      "కర": 492,
      "శ్రీ": 493,
      "జిల్లా": 494,
      "బడి": 495,
      "ెక్": 496,
      "నాలు": 497,
      "ఎన్ని": 498,
      "తులు": 499,
      "పని": 500,
      "ద్ర": 501,
      "ళ్ల": 502,
      "సభ": 503,
      "స్తే": 504,
      "కారం": 505,
      "ందిన": 506,
      "అందు": 507,
      "డ్డి": 508,
      "ాలకు": 509,
      "కార్య": 510,
      "సై": 511,
      "తీసుకు": 512,
      "త్తి": 513,
      "తర్": 514,
      "ైనా": 515,
      "ప్రజ": 516,
      "సో": 517,
      "థి": 518,
      "పర్": 519,
      "పోలీ": 520,
      "భారత": 521,
      "డంతో": 522,
      "స్తుంది": 523,
      "బె": 524,
      "సర్": 525,
      "పెద్ద": 526,
      "ముందు": 527,
      "క్కువ": 528,
      "క్కడ": 529,
      "తరు": 530,
      "ట్లా": 531,
      "మరో": 532,
      "లంగా": 533,
      "మధ్య": 534,
      "స్థి": 535,
      "కానీ": 536,
      "అంద": 537,
      "న్స్": 538,
      "నో": 539,
      "వ్యవ": 540,
      "విజ": 541,
      "చేసుకు": 542,
      "నిపి": 543,
      "వరకు": 544,
      "ప్రధా": 545,
      "గం": 546,
      "మండ": 547,
      "సారి": 548,
      "శాల": 549,
      "రై": 550,
      "వారం": 551,
      "పం": 552,
      "తర్వాత": 553,
      "గ్రామం": 554,
      "లక్ష": 555,
      "ాలు": 556,
      "వహి": 557,
      "ంటుంది": 558,
      "కరి": 559,
      "ఏర్": 560,
      "క్రి": 561,
      "పారు": 562,
      "లం": 563,
      "స్ప": 564,
      "తొ": 565,
      "ప్రాంత": 566,
      "ంచాడు": 567,
      "గ్గ": 568,
      "సులు": 569,
      "త్తు": 570,
      "అర్": 571,
      "చెందిన": 572,
      "కంగా": 573,
      "ంచుకు": 574,
      "కార్": 575,
      "ప్రభుత్వం": 576,
      "సర": 577,
      "మై": 578,
      "లేక": 579,
      "దో": 580,
      "దర్శ": 581,
      "సంబ": 582,
      "సరి": 583,
      "మాట్లా": 584,
      "లుగా": 585,
      "దూ": 586,
      "వృ": 587,
      "ఫి": 588,
      "వ్వ": 589,
      "తల": 590,
      "ందే": 591,
      "ుల": 592,
      "గల": 593,
      "టన": 594,
      "ఉన్నాయి": 595,
      "పడు": 596,
      "విద్య": 597,
      "గణ": 598,
      "పంచ": 599,
      "ద్వ": 600,
      "క్షి": 601,
      "తలు": 602,
      "స్తోంది": 603,
      "ముఖ్య": 604,
      "బ్బ": 605,
      "వల్ల": 606,
      "ళ్ళు": 607,
      "్రెస్": 608,
      "తీయ": 609,
      "యూ": 610,
      "తంగా": 611,
      "పెట్ట": 612,
      "లై": 613,
      "అలా": 614,
      "భూ": 615,
      "మర": 616,
      "విధ": 617,
      "కులు": 618,
      "ొక్క": 619,
      "ఉప": 620,
      "మర్": 621,
      "పడ": 622,
      "కాంగ": 623,
      "హ్": 624,
      "ళ్ళి": 625,
      "ర్కొ": 626,
      "వంటి": 627,
      "కల్": 628,
      "యే": 629,
      "్యం": 630,
      "లోకి": 631,
      "డ్డ": 632,
      "న్ను": 633,
      "00": 634,
      "టో": 635,
      "ఆరో": 636,
      "నగ": 637,
      "కాంగ్రెస్": 638,
      "చేసే": 639,
      "గత": 640,
      "బయ": 641,
      "అన్నారు": 642,
      "పాల": 643,
      "201": 644,
      "అవు": 645,
      "ఇం": 646,
      "క్రమ": 647,
      "అన": 648,
      "తెలిపారు": 649,
      "అన్న": 650,
      "యొక్క": 651,
      "అతని": 652,
      "కుల": 653,
      "చా": 654,
      "ద్వారా": 655,
      "తీసు": 656,
      "పూర్": 657,
      "ంలోని": 658,
      "ందర్": 659,
      "హై": 660,
      "నని": 661,
      "యని": 662,
      "తెలంగా": 663,
      "మంచి": 664,
      "కాదు": 665,
      "మహ": 666,
      "స్వా": 667,
      "కొన్ని": 668,
      "ట్టుకు": 669,
      "పేరు": 670,
      "ప్రే": 671,
      "ర్చు": 672,
      "వచ్చు": 673,
      "హీ": 674,
      "క్కి": 675,
      "తెలంగాణ": 676,
      "కలు": 677,
      "నేను": 678,
      "ంచడం": 679,
      "కనిపి": 680,
      "పద": 681,
      "అది": 682,
      "కొత్త": 683,
      "ఫీ": 684,
      "పాల్": 685,
      "కావ": 686,
      "స్తారు": 687,
      "తను": 688,
      "మాన": 689,
      "కోర్": 690,
      "ష్ణ": 691,
      "పట్ట": 692,
      "య్": 693,
      "టె": 694,
      "శ్ర": 695,
      "నాయ": 696,
      "లె": 697,
      "ంటారు": 698,
      "ంపు": 699,
      "చేశా": 700,
      "హం": 701,
      "ఇక": 702,
      "చేసింది": 703,
      "ఎక్కువ": 704,
      "ప్రక": 705,
      "హు": 706,
      "తరువాత": 707,
      "స్య": 708,
      "న్యా": 709,
      "గణన": 710,
      "నెల": 711,
      "ఎదు": 712,
      "చిన్న": 713,
      "షా": 714,
      "వెళ్": 715,
      "దల": 716,
      "కలిగి": 717,
      "మాట": 718,
      "ప్రత్య": 719,
      "దగ్గ": 720,
      "జీవి": 721,
      "బ్ర": 722,
      "ద్ధి": 723,
      "ప్రారం": 724,
      "ప్రకారం": 725,
      "అవకా": 726,
      "వులు": 727,
      "పిల్ల": 728,
      "కొని": 729,
      "తున్నారు": 730,
      "ఫో": 731,
      "యత్": 732,
      "ఖా": 733,
      "బ్యా": 734,
      "ఇప్పటి": 735,
      "ుడు": 736,
      "దం": 737,
      "అం": 738,
      "పోవ": 739,
      "వత్స": 740,
      "పర": 741,
      "సమీ": 742,
      "సింది": 743,
      "వచ్చిన": 744,
      "స్వ": 745,
      "దీని": 746,
      "నిర్వహి": 747,
      "పూర్తి": 748,
      "పోయింది": 749,
      "తెలుగు": 750,
      "అంది": 751,
      "సంవత్స": 752,
      "దాని": 753,
      "గురించి": 754,
      "పాఠ": 755,
      "ట్ర": 756,
      "జనగణన": 757,
      "మిక": 758,
      "ందో": 759,
      "సంస్థ": 760,
      "గానే": 761,
      "ఒక్క": 762,
      "ప్రపంచ": 763,
      "ఉద్య": 764,
      "ళ్లు": 765,
      "ారణ": 766,
      "శు": 767,
      "ఇప్పుడు": 768,
      "ణ్": 769,
      "నియ": 770,
      "తుల": 771,
      "గె": 772,
      "జనా": 773,
      "రావ": 774,
      "శాఖ": 775,
      "జె": 776,
      "పథ": 777,
      "విస్త": 778,
      "తున్నాయి": 779,
      "నలు": 780,
      "రెడ్డి": 781,
      "మాత్రం": 782,
      "సంబం": 783,
      "దృ": 784,
      "ద్దు": 785,
      "కథ": 786,
      "య్యా": 787,
      "పేర్కొ": 788,
      "జేపీ": 789,
      "గురు": 790,
      "ష్టి": 791,
      "పరిస్థి": 792,
      "ప్రభుత్వ": 793,
      "జ్ఞ": 794,
      "వస్తు": 795,
      "చంద్ర": 796,
      "ముఖ": 797,
      "ాలలో": 798,
      "రాజకీ": 799,
      "పోయా": 800,
      "బీజేపీ": 801,
      "సాధి": 802,
      "ప్రస్తు": 803,
      "చుకు": 804,
      "ల్డ్": 805,
      "అన్ని": 806,
      "చీ": 807,
      "వాటి": 808,
      "మహి": 809,
      "ల్లు": 810,
      "ప్రయత్": 811,
      "కోర్టు": 812,
      "ఉంటుంది": 813,
      "ప్రధాన": 814,
      "జరిగిన": 815,
      "వార": 816,
      "క్షణ": 817,
      "నిర్ణ": 818,
      "ష్టం": 819,
      "10": 820,
      "నర్": 821,
      "పెట్టి": 822,
      "నటి": 823,
      "రుకు": 824,
      "గంట": 825,
      "ంతా": 826,
      "బాద్": 827,
      "సందర్": 828,
      "ఆడ": 829,
      "చో": 830,
      "స్ట్": 831,
      "ంతి": 832,
      "భాగ": 833,
      "వైపు": 834,
      "మూడు": 835,
      "వాడు": 836,
      "డె": 837,
      "వ్ర": 838,
      "టే": 839,
      "లోనే": 840,
      "కళ": 841,
      "ఆలో": 842,
      "యన్": 843,
      "షె": 844,
      "ఎంత": 845,
      "విడు": 846,
      "పలు": 847,
      "డ్యూ": 848,
      "విషయం": 849,
      "ఆధ": 850,
      "మహిళ": 851,
      "జరుగు": 852,
      "లేదని": 853,
      "ఉత్": 854,
      "క్టర్": 855,
      "సమయంలో": 856,
      "వ్యక్": 857,
      "వద్ద": 858,
      "కాని": 859,
      "ందా": 860,
      "సంబంధి": 861,
      "జనాభా": 862,
      "పాత్ర": 863,
      "ూరు": 864,
      "తప్ప": 865,
      "రావు": 866,
      "బాబు": 867,
      "సౌ": 868,
      "చేసు": 869,
      "స్తున్నా": 870,
      "వచ్చ": 871,
      "కుటు": 872,
      "హీరో": 873,
      "రంగ": 874,
      "చూడ": 875,
      "వచ్చే": 876,
      "చర్య": 877,
      "అధికారు": 878,
      "కొన": 879,
      "డో": 880,
      "కెట్": 881,
      "మృ": 882,
      "రాలు": 883,
      "ఎన్నిక": 884,
      "స్టు": 885,
      "మారు": 886,
      "పాఠశాల": 887,
      "రాజకీయ": 888,
      "ార్థ": 889,
      "రెండ": 890,
      "నిర్మా": 891,
      "ంటా": 892,
      "కేసు": 893,
      "చారం": 894,
      "న్నీ": 895,
      "ఉత్త": 896,
      "హో": 897,
      "వ్యక్తి": 898,
      "గ్రామంలో": 899,
      "ర్మ": 900,
      "జరి": 901,
      "త్వ": 902,
      "రకు": 903,
      "కాగా": 904,
      "జాతీయ": 905,
      "శీ": 906,
      "జన్": 907,
      "లేదా": 908,
      "ప్రత్యే": 909,
      "సమీప": 910,
      "కారణ": 911,
      "చెప్పి": 912,
      "క్స్": 913,
      "దొ": 914,
      "హె": 915,
      "లేని": 916,
      "మెంట్": 917,
      "యాన్ని": 918,
      "ఎలా": 919,
      "సంఘ": 920,
      "మొదటి": 921,
      "తాను": 922,
      "ఇంటి": 923,
      "వార్": 924,
      "ప్రకటి": 925,
      "పోలీసులు": 926,
      "డికి": 927,
      "అదే": 928,
      "సహ": 929,
      "జర": 930,
      "అతను": 931,
      "చేస్తున్న": 932,
      "పాడు": 933,
      "మ్యా": 934,
      "కుడు": 935,
      "ళి": 936,
      "ఇవ్వ": 937,
      "డుగు": 938,
      "కృష్ణ": 939,
      "ఇచ్చి": 940,
      "మాత్రమే": 941,
      "సభ్య": 942,
      "షెడ్యూ": 943,
      "రామ": 944,
      "వున్న": 945,
      "ఇద్ద": 946,
      "వరు": 947,
      "సమస్య": 948,
      "ఉండే": 949,
      "రాల": 950,
      "స్టే": 951,
      "త్తం": 952,
      "విశ్": 953,
      "తీవ్ర": 954,
      "బయట": 955,
      "గిన": 956,
      "కాలు": 957,
      "దేశా": 958,
      "వాళ్ళ": 959,
      "యోగి": 960,
      "ఉద్యో": 961,
      "వృద్ధి": 962,
      "విడుదల": 963,
      "ల్ని": 964,
      "పరుగు": 965,
      "గీ": 966,
      "తల్లి": 967,
      "ఇలా": 968,
      "తెలియ": 969,
      "రాజు": 970,
      "ప్రస్తుతం": 971,
      "ంక": 972,
      "స్థాయి": 973,
      "అంటే": 974,
      "జూ": 975,
      "లపై": 976,
      "ప్రమా": 977,
      "వచ్చింది": 978,
      "ారీ": 979,
      "భావి": 980,
      "ఏర్పాటు": 981,
      "అధ్య": 982,
      "వంత": 983,
      "వన": 984,
      "నాకు": 985,
      "గ్య": 986,
      "టై": 987,
      "వెంట": 988,
      "దీంతో": 989,
      "వ్వు": 990,
      "అక్క": 991,
      "యాలు": 992,
      "వారికి": 993,
      "దారు": 994,
      "సందర్భ": 995,
      "ప్రశ్": 996,
      "భారత్": 997,
      "గుర్తి": 998,
      "యారు": 999,
      "భ్య": 1000,
      "ంటాయి": 1001,
      "మం": 1002,
      "వెళ్ళి": 1003,
      "జో": 1004,
      "రణ": 1005,
      "అనేక": 1006,
      "బాల": 1007,
      "ంప": 1008,
      "రికి": 1009,
      "అత్య": 1010,
      "దేశంలో": 1011,
      "సహా": 1012,
      "డ్డా": 1013,
      "మెరి": 1014,
      "నిల": 1015,
      "కంటే": 1016,
      "ఇతర": 1017,
      "15": 1018,
      "మారి": 1019,
      "తిరిగి": 1020,
      "దేశ్": 1021,
      "కలిసి": 1022,
      "ంచాలని": 1023,
      "ాలతో": 1024,
      "బల": 1025,
      "మాట్లాడు": 1026,
      "నంద": 1027,
      "చన": 1028,
      "శాతం": 1029,
      "పక్ష": 1030,
      "అవకాశం": 1031,
      "తగ్": 1032,
      "ములు": 1033,
      "కొనసా": 1034,
      "సమావే": 1035,
      "లొ": 1036,
      "టార్": 1037,
      "కేషన్": 1038,
      "వన్": 1039,
      "గతి": 1040,
      "జం": 1041,
      "భారీ": 1042,
      "బ్బు": 1043,
      "శే": 1044,
      "చెప్పారు": 1045,
      "స్సు": 1046,
      "వుంది": 1047,
      "షెడ్యూల్డ్": 1048,
      "అయిన": 1049,
      "నాడు": 1050,
      "ల్లీ": 1051,
      "ఎమ్": 1052,
      "కుటుంబ": 1053,
      "మగ": 1054,
      "తున్నా": 1055,
      "హరి": 1056,
      "రంగా": 1057,
      "కుమార్": 1058,
      "జర్": 1059,
      "ఎన్": 1060,
      "కను": 1061,
      "యువ": 1062,
      "రంలో": 1063,
      "డ్డు": 1064,
      "ాన్ని": 1065,
      "వెల్ల": 1066,
      "న్య": 1067,
      "లక్": 1068,
      "డియా": 1069,
      "వుండ": 1070,
      "తిలో": 1071,
      "ధు": 1072,
      "డని": 1073,
      "సన": 1074,
      "టింగ్": 1075,
      "కొంత": 1076,
      "అక్కడ": 1077,
      "చెబు": 1078,
      "ంచా": 1079,
      "ఆల": 1080,
      "బర్": 1081,
      "దరా": 1082,
      "నిక": 1083,
      "పరీ": 1084,
      "అంటూ": 1085,
      "దగ్గర": 1086,
      "పట్టి": 1087,
      "ల్స్": 1088,
      "అమ్": 1089,
      "ంటర్": 1090,
      "జగ": 1091,
      "డై": 1092,
      "దేశం": 1093,
      "ంత్ర": 1094,
      "18": 1095,
      "నేత": 1096,
      "సిద్ధ": 1097,
      "దేవ": 1098,
      "అభ్య": 1099,
      "మొత్తం": 1100,
      "డిగా": 1101,
      "నిర్మి": 1102,
      "అమెరి": 1103,
      "ద్ది": 1104,
      "వో": 1105,
      "నంలో": 1106,
      "గర్": 1107,
      "భాష": 1108,
      "ఇంత": 1109,
      "అతి": 1110,
      "సీఎం": 1111,
      "200": 1112,
      "చూసి": 1113,
      "ణాలు": 1114,
      "ఆర్థి": 1115,
      "ఉన్నారు": 1116,
      "ప్రత్యేక": 1117,
      "తారు": 1118,
      "12": 1119,
      "విని": 1120,
      "సాధ": 1121,
      "దన": 1122,
      "ల్య": 1123,
      "చేశాడు": 1124,
      "విచ": 1125,
      "హైదరా": 1126,
      "సార్": 1127,
      "మోదీ": 1128,
      "తిని": 1129,
      "అలాగే": 1130,
      "్యంలో": 1131,
      "జై": 1132,
      "నిమి": 1133,
      "ఇందు": 1134,
      "మండల": 1135,
      "ఉత్ప": 1136,
      "పోటీ": 1137,
      "బట్టి": 1138,
      "ఎంతో": 1139,
      "పక్క": 1140,
      "ప్రి": 1141,
      "వాహ": 1142,
      "గుర్": 1143,
      "తాయి": 1144,
      "పోయిన": 1145,
      "బంధ": 1146,
      "నివా": 1147,
      "అస": 1148,
      "ర్లు": 1149,
      "టికి": 1150,
      "వెల్లడి": 1151,
      "లూ": 1152,
      "ఎమ్మె": 1153,
      "న్యాయ": 1154,
      "ప్రాథ": 1155,
      "నున్న": 1156,
      "సింగ్": 1157,
      "అమ": 1158,
      "ఉన్నా": 1159,
      "ప్రజలు": 1160,
      "చేయడం": 1161,
      "త్వం": 1162,
      "రూపా": 1163,
      "ప్రదేశ్": 1164,
      "లేకుండా": 1165,
      "మహా": 1166,
      "పది": 1167,
      "అల": 1168,
      "టానికి": 1169,
      "ఉద": 1170,
      "మ్యాచ్": 1171,
      "అభివృద్ధి": 1172,
      "వెళ్లి": 1173,
      "అధ్యక్ష": 1174,
      "అధికారులు": 1175,
      "ప్రారంభి": 1176,
      "ళ్లతో": 1177,
      "తండ": 1178,
      "పల్లి": 1179,
      "కోడ్": 1180,
      "నమో": 1181,
      "ంధ్ర": 1182,
      "పడ్డ": 1183,
      "ంతరం": 1184,
      "నకు": 1185,
      "లక": 1186,
      "ాల్సి": 1187,
      "2011": 1188,
      "కున్న": 1189,
      "మీడియా": 1190,
      "బొ": 1191,
      "ఇంకా": 1192,
      "రాత్రి": 1193,
      "త్మ": 1194,
      "గణా": 1195,
      "విధంగా": 1196,
      "అవి": 1197,
      "ానికి": 1198,
      "కోవడం": 1199,
      "అయ్య": 1200,
      "అధిక": 1201,
      "ంకాల": 1202,
      "వేల": 1203,
      "తీర్": 1204,
      "తొలి": 1205,
      "డాది": 1206,
      "ెడ్డి": 1207,
      "వైద్య": 1208,
      "ధర": 1209,
      "చిన": 1210,
      "హెక్": 1211,
      "పోలీసు": 1212,
      "ఆర్థిక": 1213,
      "ప్పుడ": 1214,
      "బడు": 1215,
      "విధా": 1216,
      "పోతే": 1217,
      "వెళ్ళ": 1218,
      "సాయ": 1219,
      "కరణ": 1220,
      "పత్రి": 1221,
      "పాల్గొ": 1222,
      "వర్గా": 1223,
      "విస్తరించి": 1224,
      "నులు": 1225,
      "వాడ": 1226,
      "గౌ": 1227,
      "ర్ర": 1228,
      "చేస్తున్నారు": 1229,
      "చెప్": 1230,
      "ంటున్న": 1231,
      "ఇండి": 1232,
      "గిలి": 1233,
      "నాలుగు": 1234,
      "సందర్భంగా": 1235,
      "ంటున్నారు": 1236,
      "చరి": 1237,
      "శో": 1238,
      "చిత్రం": 1239,
      "అమెరికా": 1240,
      "తెలిసి": 1241,
      "గారు": 1242,
      "తెర": 1243,
      "పతి": 1244,
      "వెంటనే": 1245,
      "ట్స్": 1246,
      "ట్లో": 1247,
      "తాజా": 1248,
      "ఢి": 1249,
      "కాలం": 1250,
      "లొకేషన్": 1251,
      "చ్చు": 1252,
      "విజయ": 1253,
      "ప్రధాని": 1254,
      "కొంద": 1255,
      "కాకుండా": 1256,
      "అధికార": 1257,
      "గణాంకాల": 1258,
      "ఎలాంటి": 1259,
      "లభి": 1260,
      "డిని": 1261,
      "అడుగు": 1262,
      "ఉందని": 1263,
      "నేపథ": 1264,
      "బాగా": 1265,
      "స్తో": 1266,
      "ంచడానికి": 1267,
      "మీరు": 1268,
      "షే": 1269,
      "స్టా": 1270,
      "శక్తి": 1271,
      "భర్": 1272,
      "ణు": 1273,
      "ఢిల్లీ": 1274,
      "30": 1275,
      "గూ": 1276,
      "త్యా": 1277,
      "స్వామి": 1278,
      "ాల్సిన": 1279,
      "సొ": 1280,
      "మరింత": 1281,
      "ముఖ్యమంత్రి": 1282,
      "కమి": 1283,
      "లువ": 1284,
      "ఎన్నికల": 1285,
      "వరకూ": 1286,
      "హెక్టార్": 1287,
      "ప్రభా": 1288,
      "చ్చారు": 1289,
      "కోట్ల": 1290,
      "చెయ్య": 1291,
      "స్తున్నాయి": 1292,
      "దాపు": 1293,
      "14": 1294,
      "గాంధ": 1295,
      "విమర్": 1296,
      "కాలంలో": 1297,
      "మ్ము": 1298,
      "హైదరాబాద్": 1299,
      "యంగా": 1300,
      "ఇక్కడ": 1301,
      "యిన్": 1302,
      "హార": 1303,
      "అందుకు": 1304,
      "శాస్త": 1305,
      "అప్పటి": 1306,
      "అవస": 1307,
      "వ్యవస్థ": 1308,
      "డిన": 1309,
      "యాల": 1310,
      "కూడ": 1311,
      "జనాభాతో": 1312,
      "హెక్టార్లలో": 1313,
      "మతి": 1314,
      "స్టార్": 1315,
      "ఇళ్లతో": 1316,
      "కూర్చు": 1317,
      "ద్యా": 1318,
      "క్య": 1319,
      "సము": 1320,
      "వ్యక్తం": 1321,
      "ఆది": 1322,
      "మను": 1323,
      "శాడు": 1324,
      "ధ్యా": 1325,
      "పొంది": 1326,
      "తండ్రి": 1327,
      "నాన్ని": 1328,
      "ప్రీ": 1329,
      "జ్ఞా": 1330,
      "నై": 1331,
      "డబ్బు": 1332,
      "ర్యా": 1333,
      "ఇందులో": 1334,
      "కౌ": 1335,
      "ఆరోగ్య": 1336,
      "చెప్పు": 1337,
      "ఫా": 1338,
      "ఆంధ్ర": 1339,
      "నిలి": 1340,
      "గాంధీ": 1341,
      "టీఆర్": 1342,
      "యోజ": 1343,
      "చట్ట": 1344,
      "ఫలి": 1345,
      "వేది": 1346,
      "స్తాయి": 1347,
      "దర్శి": 1348,
      "చూపి": 1349,
      "కార్యక్రమ": 1350,
      "ల్యే": 1351,
      "ళ్లి": 1352,
      "ఉత్పత్తి": 1353,
      "ఒకటి": 1354,
      "జరిగింది": 1355,
      "ంట్లో": 1356,
      "ప్పటికీ": 1357,
      "దాదాపు": 1358,
      "పులు": 1359,
      "ప్రారంభ": 1360,
      "ప్రయా": 1361,
      "ఇప్పటికే": 1362,
      "ఏం": 1363,
      "ఎమ్మెల్యే": 1364,
      "ప్రవే": 1365,
      "సంబంధించిన": 1366,
      "సీఆర్": 1367,
      "17": 1368,
      "క్రీ": 1369,
      "50": 1370,
      "తెలుసు": 1371,
      "ప్రజా": 1372,
      "క్త": 1373,
      "గుర్తు": 1374,
      "నీటి": 1375,
      "ఏడాది": 1376,
      "భార్య": 1377,
      "డియో": 1378,
      "వుల": 1379,
      "ఎవరి": 1380,
      "చార": 1381,
      "వీటి": 1382,
      "అభ్యర్": 1383,
      "దె": 1384,
      "ండె": 1385,
      "చదు": 1386,
      "అందుకే": 1387,
      "పేర్కొన్నారు": 1388,
      "పడిన": 1389,
      "అమ్మ": 1390,
      "నల్": 1391,
      "పాట": 1392,
      "కొండ": 1393,
      "తుందని": 1394,
      "అర్థ": 1395,
      "ంలోకి": 1396,
      "ంచేందుకు": 1397,
      "16": 1398,
      "ఇదే": 1399,
      "పాకి": 1400,
      "కారణంగా": 1401,
      "డ్ర": 1402,
      "మగవారి": 1403,
      "మాట్లాడుతూ": 1404,
      "బాధ": 1405,
      "నేపథ్యంలో": 1406,
      "ఫోన్": 1407,
      "ఆడవారి": 1408,
      "దృష్టి": 1409,
      "చేస్తూ": 1410,
      "ంచాలి": 1411,
      "ఇలాంటి": 1412,
      "వాన్ని": 1413,
      "కోవాలి": 1414,
      "కింద": 1415,
      "కేవల": 1416,
      "కన": 1417,
      "నంగా": 1418,
      "బ్యాం": 1419,
      "యిన": 1420,
      "చ్చే": 1421,
      "వది": 1422,
      "తికి": 1423,
      "అయినా": 1424,
      "వెంక": 1425,
      "ఏదో": 1426,
      "అందరి": 1427,
      "మల": 1428,
      "ఎన్న": 1429,
      "కంపె": 1430,
      "లక్షల": 1431,
      "13": 1432,
      "ారో": 1433,
      "మును": 1434,
      "జెక్": 1435,
      "వారిని": 1436,
      "కాలే": 1437,
      "జట్టు": 1438,
      "తిరే": 1439,
      "కేవలం": 1440,
      "భద్ర": 1441,
      "కేసీఆర్": 1442,
      "కంపెనీ": 1443,
      "పరీక్ష": 1444,
      "అంతే": 1445,
      "మనం": 1446,
      "ఇటీ": 1447,
      "అవసరం": 1448,
      "సౌకర్": 1449,
      "తమి": 1450,
      "బడింది": 1451,
      "ఉపయోగి": 1452,
      "పోయాడు": 1453,
      "దాన్ని": 1454,
      "పడింది": 1455,
      "వ్యతిరే": 1456,
      "తక్కువ": 1457,
      "ల్లె": 1458,
      "తనకు": 1459,
      "అమ్మా": 1460,
      "డాక్టర్": 1461,
      "జరు": 1462,
      "కుని": 1463,
      "వ్యాప్": 1464,
      "కల్పి": 1465,
      "దారి": 1466,
      "రోజుల": 1467,
      "బాటు": 1468,
      "తగ్గి": 1469,
      "రూపాయ": 1470,
      "సమాచారం": 1471,
      "వయ": 1472,
      "ఫె": 1473,
      "విషయంలో": 1474,
      "బాధ్య": 1475,
      "ప్రాథమిక": 1476,
      "యానికి": 1477,
      "సామా": 1478,
      "ట్టే": 1479,
      "బౌ": 1480,
      "వేసి": 1481,
      "ఘటన": 1482,
      "ఉంటే": 1483,
      "సీపీ": 1484,
      "ట్రా": 1485,
      "వేయ": 1486,
      "క్షన్": 1487,
      "షం": 1488,
      "లక్ష్": 1489,
      "దులు": 1490,
      "వివా": 1491,
      "సిం": 1492,
      "చేయాలని": 1493,
      "సాం": 1494,
      "ఆట": 1495,
      "వాళ్ళు": 1496,
      "చంద్రబాబు": 1497,
      "క్యా": 1498,
      "కళా": 1499,
      "చివరి": 1500,
      "చర్చ": 1501,
      "24": 1502,
      "ఉంటాయి": 1503,
      "విద్యా": 1504,
      "స్తాన్": 1505,
      "మనసు": 1506,
      "హ్మ": 1507,
      "చేస్తా": 1508,
      "సృ": 1509,
      "వివిధ": 1510,
      "దక్షి": 1511,
      "జగన్": 1512,
      "దానికి": 1513,
      "పెట్టు": 1514,
      "అంతర్": 1515,
      "న్నది": 1516,
      "ఎవర": 1517,
      "చరిత్ర": 1518,
      "రువు": 1519,
      "పడే": 1520,
      "కింది": 1521,
      "ముల": 1522,
      "కేంద్రం": 1523,
      "ప్లా": 1524,
      "సాధారణ": 1525,
      "తిక": 1526,
      "రవి": 1527,
      "మానికి": 1528,
      "ఎందుకు": 1529,
      "లోప": 1530,
      "వరణ": 1531,
      "నాట": 1532,
      "రుగా": 1533,
      "మార": 1534,
      "ప్రజల": 1535,
      "శివ": 1536,
      "పెరిగి": 1537,
      "ఎక్కువగా": 1538,
      "యుడు": 1539,
      "క్షే": 1540,
      "మాజీ": 1541,
      "త్వర": 1542,
      "కాక": 1543,
      "పరిస్థితి": 1544,
      "స్తున్నాడు": 1545,
      "ప్రేమ": 1546,
      "శరీ": 1547,
      "వలన": 1548,
      "పర్య": 1549,
      "కొద్ది": 1550,
      "చైనా": 1551,
      "ప్రముఖ": 1552,
      "సూచి": 1553,
      "ముందుకు": 1554,
      "డవ": 1555,
      "రెండో": 1556,
      "పెరుగు": 1557,
      "లిం": 1558,
      "ప్రయత్ని": 1559,
      "న్యూ": 1560,
      "ప్రాజెక్": 1561,
      "ఆలోచి": 1562,
      "గింది": 1563,
      "జీవిత": 1564,
      "ంగళ": 1565,
      "విశ్వ": 1566,
      "పట్టు": 1567,
      "యుద్ధ": 1568,
      "ఎన్నికల్లో": 1569,
      "గురి": 1570,
      "చేరుకు": 1571,
      "గిరి": 1572,
      "అనుకు": 1573,
      "చదువు": 1574,
      "భయ": 1575,
      "స్టి": 1576,
      "శాలు": 1577,
      "నమోదు": 1578,
      "పురు": 1579,
      "తాజాగా": 1580,
      "జరగ": 1581,
      "కష్ట": 1582,
      "ండగా": 1583,
      "ంబర్": 1584,
      "దర్శక": 1585,
      "ఐదు": 1586,
      "నుంది": 1587,
      "కొందరు": 1588,
      "స్టర్": 1589,
      "డమే": 1590,
      "పడ్డారు": 1591,
      "ధన": 1592,
      "ఇచ్చిన": 1593,
      "25": 1594,
      "ఇద్దరు": 1595,
      "ఇన్": 1596,
      "ఫు": 1597,
      "పైగా": 1598,
      "సంస్": 1599,
      "ందీ": 1600,
      "పింది": 1601,
      "దండ": 1602,
      "ఆఫ్": 1603,
      "నున్నారు": 1604,
      "లోనూ": 1605,
      "కీలక": 1606,
      "ఏపీ": 1607,
      "పార": 1608,
      "విచారణ": 1609,
      "ంచుకో": 1610,
      "లింగ్": 1611,
      "వాల్": 1612,
      "ందన్నారు": 1613,
      "లానికి": 1614,
      "సమర్": 1615,
      "అవసర": 1616,
      "వాలు": 1617,
      "గులు": 1618,
      "రాహు": 1619,
      "చేయి": 1620,
      "కొడు": 1621,
      "వెన": 1622,
      "రూప": 1623,
      "బ్బంది": 1624,
      "వీరి": 1625,
      "విద్యార్థ": 1626,
      "హాలు": 1627,
      "నిజ": 1628,
      "సినిమ": 1629,
      "వెను": 1630,
      "తమైన": 1631,
      "స్పష్టం": 1632,
      "ఉంటు": 1633,
      "స్ట్ర": 1634,
      "బై": 1635,
      "బ్రి": 1636,
      "మవు": 1637,
      "నాథ": 1638,
      "బడిన": 1639,
      "యోగ": 1640,
      "అమలు": 1641,
      "ఖ్యా": 1642,
      "షల్": 1643,
      "చై": 1644,
      "చింది": 1645,
      "తరలి": 1646,
      "ఎత్తు": 1647,
      "లేద": 1648,
      "తమిళ": 1649,
      "జ్య": 1650,
      "పించారు": 1651,
      "టీడీ": 1652,
      "ారాయ": 1653,
      "రాహుల్": 1654,
      "నిజా": 1655,
      "మున": 1656,
      "మనిషి": 1657,
      "ందోళ": 1658,
      "అమ్మాయి": 1659,
      "తేదీ": 1660,
      "పణ": 1661,
      "కోవాలని": 1662,
      "తెలిసిందే": 1663,
      "శ్వర": 1664,
      "సార్లు": 1665,
      "ఎన్నో": 1666,
      "అభిమా": 1667,
      "టంతో": 1668,
      "నడి": 1669,
      "గ్రీ": 1670,
      "పోయారు": 1671,
      "గది": 1672,
      "ప్టె": 1673,
      "కులాల": 1674,
      "చర్యలు": 1675,
      "ొక": 1676,
      "11": 1677,
      "పెట్టుకు": 1678,
      "రారు": 1679,
      "నాటి": 1680,
      "లర్": 1681,
      "దేశి": 1682,
      "అసలు": 1683,
      "సృష్టి": 1684,
      "నడు": 1685,
      "వెలు": 1686,
      "ధీ": 1687,
      "అనంతరం": 1688,
      "పొంద": 1689,
      "కాల్": 1690,
      "గారి": 1691,
      "పడ్డా": 1692,
      "23": 1693,
      "పోరా": 1694,
      "ంబ్": 1695,
      "అతడు": 1696,
      "కన్": 1697,
      "ట్టిన": 1698,
      "ఇండియా": 1699,
      "మాట్లాడ": 1700,
      "ఫీసు": 1701,
      "అందులో": 1702,
      "భూమి": 1703,
      "తప్పు": 1704,
      "పురం": 1705,
      "మాలు": 1706,
      "సూర్": 1707,
      "వ్యాప్తంగా": 1708,
      "పాది": 1709,
      "నమ్మ": 1710,
      "బే": 1711,
      "లైన": 1712,
      "మత": 1713,
      "పోవడం": 1714,
      "పరుగులు": 1715,
      "యర్": 1716,
      "గాయ": 1717,
      "రల్": 1718,
      "తులను": 1719,
      "మ్మి": 1720,
      "మేరకు": 1721,
      "ఆధార": 1722,
      "సంత": 1723,
      "తులకు": 1724,
      "పరు": 1725,
      "కవి": 1726,
      "రాయ": 1727,
      "డంలో": 1728,
      "పుణ": 1729,
      "ధ్": 1730,
      "కాబట్టి": 1731,
      "ధం": 1732,
      "ఏమి": 1733,
      "ంచాయి": 1734,
      "రక్షణ": 1735,
      "ఆస": 1736,
      "సోమ": 1737,
      "ఆనంద": 1738,
      "సైతం": 1739,
      "దాలు": 1740,
      "మాండ్": 1741,
      "కోల్": 1742,
      "మీటర్": 1743,
      "దర": 1744,
      "విన": 1745,
      "ాలంటే": 1746,
      "త్తా": 1747,
      "నరే": 1748,
      "దశ": 1749,
      "భవి": 1750,
      "22": 1751,
      "కార్డు": 1752,
      "వెళ్ల": 1753,
      "భర్త": 1754,
      "రాజ్": 1755,
      "ఎందు": 1756,
      "గాలు": 1757,
      "నించారు": 1758,
      "కాం": 1759,
      "రాష్ట్రం": 1760,
      "ముగి": 1761,
      "వివరి": 1762,
      "సేవ": 1763,
      "సంబంధ": 1764,
      "య్యాయి": 1765,
      "పారి": 1766,
      "పురుష": 1767,
      "మైంది": 1768,
      "చేరి": 1769,
      "ప్రో": 1770,
      "ఆలోచన": 1771,
      "గాలి": 1772,
      "అప్ప": 1773,
      "ఉద్": 1774,
      "గుండె": 1775,
      "ఒకే": 1776,
      "నిర": 1777,
      "కట్ట": 1778,
      "ప్రై": 1779,
      "గొప్ప": 1780,
      "పున": 1781,
      "ప్రసా": 1782,
      "పట్ల": 1783,
      "నన్ను": 1784,
      "సంగీ": 1785,
      "కన్నా": 1786,
      "నియా": 1787,
      "గ్గు": 1788,
      "విధి": 1789,
      "రస్": 1790,
      "కారణం": 1791,
      "ఎల్": 1792,
      "మళ్": 1793,
      "అతనికి": 1794,
      "పౌ": 1795,
      "వెల్లడించారు": 1796,
      "శ్రమ": 1797,
      "ఆందోళ": 1798,
      "ండే": 1799,
      "స్తాడు": 1800,
      "ెం": 1801,
      "పిన": 1802,
      "గతంలో": 1803,
      "వుడ్": 1804,
      "అంతా": 1805,
      "వస్తువులు": 1806,
      "మన్": 1807,
      "భీ": 1808,
      "మన్నారు": 1809,
      "వంద": 1810,
      "స్నే": 1811,
      "తెగల": 1812,
      "వానికి": 1813,
      "ణీ": 1814,
      "నాగ": 1815,
      "మళ్లీ": 1816,
      "అసె": 1817,
      "త్రు": 1818,
      "పేట": 1819,
      "సమావేశ": 1820,
      "నియోజ": 1821,
      "పాటి": 1822,
      "టువంటి": 1823,
      "మూవీ": 1824,
      "మండలం": 1825,
      "పూర్తిగా": 1826,
      "వాటిని": 1827,
      "పాకిస్తాన్": 1828,
      "త్యం": 1829,
      "జయ": 1830,
      "దాడి": 1831,
      "రాష్ట్రంలో": 1832,
      "ఎంపీ": 1833,
      "పెళ్ళి": 1834,
      "ంబ్లీ": 1835,
      "పోర్": 1836,
      "దుర్": 1837,
      "నియోజక": 1838,
      "బం": 1839,
      "కొను": 1840,
      "పాలి": 1841,
      "స్థాయిలో": 1842,
      "అరె": 1843,
      "భక్": 1844,
      "గంటల": 1845,
      "అసెంబ్లీ": 1846,
      "ఇటీవల": 1847,
      "ప్రొ": 1848,
      "పాలు": 1849,
      "వేగ": 1850,
      "వేదిక": 1851,
      "అనేది": 1852,
      "చ్చిన": 1853,
      "న్నాను": 1854,
      "గలి": 1855,
      "అడ": 1856,
      "విజయం": 1857,
      "కిలో": 1858,
      "సౌకర్యం": 1859,
      "అద్": 1860,
      "తుల్లో": 1861,
      "అవుతున్నాయి": 1862,
      "ంటాడు": 1863,
      "లోను": 1864,
      "విశే": 1865,
      "రక": 1866,
      "అలాంటి": 1867,
      "వ్యాఖ్య": 1868,
      "అంచ": 1869,
      "తయారు": 1870,
      "పరిశీ": 1871,
      "తుడు": 1872,
      "57": 1873,
      "భాగంగా": 1874,
      "హత్య": 1875,
      "వాతా": 1876,
      "ారాయణ": 1877,
      "తాడు": 1878,
      "వని": 1879,
      "పెళ్లి": 1880,
      "యల్": 1881,
      "చెల్లి": 1882,
      "సన్": 1883,
      "అధికారి": 1884,
      "యాత్ర": 1885,
      "ప్పుడూ": 1886,
      "దేశాల": 1887,
      "సంతో": 1888,
      "య్యారు": 1889,
      "ధర్": 1890,
      "భో": 1891,
      "ప్పుడే": 1892,
      "స్టేషన్": 1893,
      "అంగ": 1894,
      "టూ": 1895,
      "జల": 1896,
      "దెబ్బ": 1897,
      "అత్యంత": 1898,
      "పుడు": 1899,
      "పోయే": 1900,
      "మంత్ర": 1901,
      "నియర్": 1902,
      "బూ": 1903,
      "అప్పుడు": 1904,
      "కదా": 1905,
      "కమ": 1906,
      "గాని": 1907,
      "టీడీపీ": 1908,
      "నువ్వు": 1909,
      "నాల": 1910,
      "బృ": 1911,
      "కోరి": 1912,
      "చేయడానికి": 1913,
      "ణంలో": 1914,
      "విలువ": 1915,
      "ఫ్యా": 1916,
      "తొల": 1917,
      "నిర్ణయం": 1918,
      "ఉత్తర": 1919,
      "ారావు": 1920,
      "దిరి": 1921,
      "రాజ్య": 1922,
      "మూర్తి": 1923,
      "చోటు": 1924,
      "అరు": 1925,
      "ఇంట్లో": 1926,
      "లికి": 1927,
      "పార్ల": 1928,
      "నది": 1929,
      "ంటో": 1930,
      "వాల": 1931,
      "మిగిలి": 1932,
      "సంవత్సరం": 1933,
      "శాస్త్ర": 1934,
      "ంగి": 1935,
      "రక్షి": 1936,
      "రియా": 1937,
      "హారం": 1938,
      "ప్రదా": 1939,
      "గ్గా": 1940,
      "వర్తి": 1941,
      "ఠా": 1942,
      "స్వీ": 1943,
      "వీడియో": 1944,
      "లేరు": 1945,
      "అనిపి": 1946,
      "స్థానంలో": 1947,
      "నగర్": 1948,
      "చికి": 1949,
      "చేస్తే": 1950,
      "పవన్": 1951,
      "ఉగ్ర": 1952,
      "తప్పి": 1953,
      "ఉపా": 1954,
      "దేవి": 1955,
      "ప్రేక్ష": 1956,
      "గాడు": 1957,
      "పేరుతో": 1958,
      "తాము": 1959,
      "సంఘటన": 1960,
      "అడి": 1961,
      "మరణి": 1962,
      "దూరం": 1963,
      "ఇంటర్": 1964,
      "వరం": 1965,
      "సముద్ర": 1966,
      "బంగ": 1967,
      "సుప్రీ": 1968,
      "ఎక్కడ": 1969,
      "ద్దా": 1970,
      "ప్రకటన": 1971,
      "ఫై": 1972,
      "అందరూ": 1973,
      "ఆరు": 1974,
      "పంపి": 1975,
      "చొ": 1976,
      "బడ": 1977,
      "చెప్పిన": 1978,
      "మొదలు": 1979,
      "ధర్మ": 1980,
      "ప్రాంతంలో": 1981,
      "ప్రాజెక్టు": 1982,
      "వ్యూ": 1983,
      "అగ్": 1984,
      "తిరుగు": 1985,
      "అభిప్రా": 1986,
      "తొలగి": 1987,
      "చేసుకో": 1988,
      "మళ్ళ": 1989,
      "నిర్ణయి": 1990,
      "పరిచ": 1991,
      "బయటకు": 1992,
      "టెస్": 1993,
      "దీనికి": 1994,
      "ఎదుర్కొ": 1995,
      "ందం": 1996,
      "రూపొంది": 1997,
      "త్వంలో": 1998,
      "స్త్రీ": 1999,
      "విడి": 2000,
      "క్రియ": 2001,
      "ఏడు": 2002,
      "నేతలు": 2003,
      "ఉదయం": 2004,
      "మాన్": 2005,
      "హక్కు": 2006,
      "గమని": 2007,
      "ఫ్ర": 2008,
      "అర": 2009,
      "సబ్": 2010,
      "వినిపి": 2011,
      "పాలన": 2012,
      "ంచలేదు": 2013,
      "ఎదురు": 2014,
      "చ్చింది": 2015,
      "గృ": 2016,
      "ఆసక్తి": 2017,
      "డైరె": 2018,
      "లాండ్": 2019,
      "విషయ": 2020,
      "తిరు": 2021,
      "కై": 2022,
      "యాప్": 2023,
      "సుప్రీం": 2024,
      "అక్కడి": 2025,
      "రిలీ": 2026,
      "మద్ద": 2027,
      "మానం": 2028,
      "ఎక్క": 2029,
      "జరిగే": 2030,
      "అధ్యక్షుడు": 2031,
      "శ్చి": 2032,
      "పుస్త": 2033,
      "గ్రామము": 2034,
      "ట్టూ": 2035,
      "డిమాండ్": 2036,
      "న్సి": 2037,
      "కోవడానికి": 2038,
      "కింగ్": 2039,
      "ఇంటికి": 2040,
      "స్పె": 2041,
      "బహు": 2042,
      "కోరు": 2043,
      "ప్రచారం": 2044,
      "కనీ": 2045,
      "కాలి": 2046,
      "లుపు": 2047,
      "ముఖ్యంగా": 2048,
      "ులకు": 2049,
      "ఛా": 2050,
      "జనం": 2051,
      "ఆవి": 2052,
      "ంత్": 2053,
      "టల్": 2054,
      "విమర్శ": 2055,
      "తాలు": 2056,
      "40": 2057,
      "రహ": 2058,
      "టమి": 2059,
      "కళ్ళ": 2060,
      "నిద్ర": 2061,
      "మండలానికి": 2062,
      "అంతర్జాతీయ": 2063,
      "రాజ్యా": 2064,
      "కూర్": 2065,
      "నింది": 2066,
      "58": 2067,
      "ంగు": 2068,
      "రైల్": 2069,
      "నారాయణ": 2070,
      "అతడి": 2071,
      "సోషల్": 2072,
      "నొ": 2073,
      "స్పంది": 2074,
      "సాహి": 2075,
      "యింది": 2076,
      "ప్తి": 2077,
      "రోడ్డు": 2078,
      "మళ్ళీ": 2079,
      "శ్రా": 2080,
      "ధిక": 2081,
      "రగ": 2082,
      "పాయి": 2083,
      "తృ": 2084,
      "మోహ": 2085,
      "గెలి": 2086,
      "య్యే": 2087,
      "స్లో": 2088,
      "మృతి": 2089,
      "మాధ్య": 2090,
      "గుర": 2091,
      "చేస్తు": 2092,
      "తున్నాడు": 2093,
      "నానికి": 2094,
      "యూని": 2095,
      "సినిమాలో": 2096,
      "రోజుల్లో": 2097,
      "సభ్యులు": 2098,
      "ీవుడ్": 2099,
      "కార్యాల": 2100,
      "మౌ": 2101,
      "చికిత్స": 2102,
      "ప్రజలకు": 2103,
      "భవ": 2104,
      "వాద": 2105,
      "ఆసు": 2106,
      "యె": 2107,
      "సార": 2108,
      "పట్టుకు": 2109,
      "ప్రైవే": 2110,
      "పిక": 2111,
      "ధులు": 2112,
      "భాగం": 2113,
      "పట్": 2114,
      "ీకరి": 2115,
      "కొనసాగు": 2116,
      "రచ": 2117,
      "చేపట్ట": 2118,
      "విదేశ": 2119,
      "ఒక్": 2120,
      "తాబ్": 2121,
      "గానీ": 2122,
      "పట్టణ": 2123,
      "000": 2124,
      "కన్న": 2125,
      "రోజులు": 2126,
      "జిల్లాలో": 2127,
      "డర్": 2128,
      "తీసుకుని": 2129,
      "షూ": 2130,
      "వెనుక": 2131,
      "కార్యక్ర": 2132,
      "ారెడ్డి": 2133,
      "గడి": 2134,
      "వర్గ": 2135,
      "సాగు": 2136,
      "నేందుకు": 2137,
      "అయింది": 2138,
      "ఖర్చు": 2139,
      "లేఖ": 2140,
      "విషయాన్ని": 2141,
      "రామ్": 2142,
      "నరేంద్ర": 2143,
      "షణ": 2144,
      "కూతు": 2145,
      "ఆందోళన": 2146,
      "మీర్": 2147,
      "ఆత్": 2148,
      "199": 2149,
      "సహాయ": 2150,
      "అర్థం": 2151,
      "రైల్వే": 2152,
      "హార్": 2153,
      "ద్ధా": 2154,
      "కమిటీ": 2155,
      "ద్రా": 2156,
      "రాజీ": 2157,
      "తని": 2158,
      "హర్": 2159,
      "చ్చుకు": 2160,
      "బ్రా": 2161,
      "ాలనే": 2162,
      "వాయి": 2163,
      "పరిశో": 2164,
      "మద్దతు": 2165,
      "దేశాలు": 2166,
      "ప్రమాద": 2167,
      "తెరకె": 2168,
      "స్కూ": 2169,
      "ముగ్": 2170,
      "హే": 2171,
      "రవ": 2172,
      "దాడు": 2173,
      "21": 2174,
      "ఫిర్యా": 2175,
      "జిక": 2176,
      "లెక్క": 2177,
      "కుమారు": 2178,
      "చేరు": 2179,
      "తెలిపింది": 2180,
      "ఫర్": 2181,
      "నగర": 2182,
      "ఇంగ్": 2183,
      "విక్ర": 2184,
      "షాలు": 2185,
      "పాద": 2186,
      "28": 2187,
      "తీరు": 2188,
      "దరి": 2189,
      "ఏళ్ల": 2190,
      "మారింది": 2191,
      "ంతం": 2192,
      "26": 2193,
      "ఆగ": 2194,
      "మాని": 2195,
      "నటు": 2196,
      "సంబంధించి": 2197,
      "వీరు": 2198,
      "స్తామని": 2199,
      "నీరు": 2200,
      "చేస్తున్నా": 2201,
      "మార్చి": 2202,
      "వేళ": 2203,
      "భాగా": 2204,
      "సంగతి": 2205,
      "పిల్లలు": 2206,
      "అద్భు": 2207,
      "మూల": 2208,
      "సంచ": 2209,
      "మరోసారి": 2210,
      "నివాస": 2211,
      "టెక్": 2212,
      "మంగళ": 2213,
      "శాంతి": 2214,
      "గాయి": 2215,
      "ళం": 2216,
      "వయసు": 2217,
      "పోవడంతో": 2218,
      "చేసుకున్న": 2219,
      "రద్దు": 2220,
      "తెలుసుకు": 2221,
      "తెలుస్తోంది": 2222,
      "వ్యవహరి": 2223,
      "స్థానం": 2224,
      "సంపాది": 2225,
      "లోక్": 2226,
      "దుపు": 2227,
      "చ్చాడు": 2228,
      "పోలీస్": 2229,
      "దర్శకుడు": 2230,
      "పరిష్": 2231,
      "లియా": 2232,
      "జారీ": 2233,
      "వరుస": 2234,
      "సత్య": 2235,
      "చూస్తూ": 2236,
      "వలె": 2237,
      "వచ్చా": 2238,
      "చారు": 2239,
      "అన్నాడు": 2240,
      "బడ్డా": 2241,
      "ఘా": 2242,
      "ంబా": 2243,
      "వాడి": 2244,
      "భారతీయ": 2245,
      "కాదని": 2246,
      "ఆర్ఎస్": 2247,
      "59": 2248,
      "స్పష్ట": 2249,
      "నవ్వు": 2250,
      "దండ్ర": 2251,
      "విద్యు": 2252,
      "య్యాడు": 2253,
      "బుల్": 2254,
      "న్లో": 2255,
      "తయ": 2256,
      "ళీ": 2257,
      "మార్పు": 2258,
      "ట్రో": 2259,
      "ంచటం": 2260,
      "సీత": 2261,
      "సమాధా": 2262,
      "రిలీజ్": 2263,
      "ఆమెకు": 2264,
      "పెట్టిన": 2265,
      "తాన్ని": 2266,
      "ఇవి": 2267,
      "రమ": 2268,
      "వైసీపీ": 2269,
      "షు": 2270,
      "వాస్త": 2271,
      "గట్టి": 2272,
      "మీటర్ల": 2273,
      "పద్ధ": 2274,
      "పైకి": 2275,
      "రంగు": 2276,
      "భం": 2277,
      "చక్క": 2278,
      "సల": 2279,
      "27": 2280,
      "లియన్": 2281,
      "కరో": 2282,
      "ఉండి": 2283,
      "ార్డు": 2284,
      "ముందే": 2285,
      "హీరోయిన్": 2286,
      "ఆరోపణ": 2287,
      "స్ట్రే": 2288,
      "పురా": 2289,
      "ఇక్క": 2290,
      "విశాఖ": 2291,
      "చది": 2292,
      "ఇచ్చారు": 2293,
      "సాధ్య": 2294,
      "వాణి": 2295,
      "తెల్ల": 2296,
      "ర్పు": 2297,
      "జాగ్ర": 2298,
      "పశ్చి": 2299,
      "మహే": 2300,
      "ముని": 2301,
      "మాటలు": 2302,
      "లక్ష్య": 2303,
      "పైన": 2304,
      "రాలే": 2305,
      "చేస్తుంది": 2306,
      "సాయి": 2307,
      "పేర్కొంది": 2308,
      "ంద్": 2309,
      "సీనియర్": 2310,
      "కొనసాగి": 2311,
      "దక్షిణ": 2312,
      "విభ": 2313,
      "60": 2314,
      "దిగా": 2315,
      "అనుమతి": 2316,
      "ఫిర్యాదు": 2317,
      "రాయి": 2318,
      "తల్లిదండ్ర": 2319,
      "గ్యా": 2320,
      "సిటీ": 2321,
      "గడ": 2322,
      "పల్లె": 2323,
      "జాగ్రత్త": 2324,
      "క్రితం": 2325,
      "కులను": 2326,
      "కాస్త": 2327,
      "ఎవ": 2328,
      "శతాబ్": 2329,
      "తీసి": 2330,
      "జీవ": 2331,
      "పరిశీలి": 2332,
      "తది": 2333,
      "తనను": 2334,
      "మహారా": 2335,
      "కొనుగో": 2336,
      "చర్చి": 2337,
      "పోషి": 2338,
      "బోర్": 2339,
      "చేశ": 2340,
      "లవ": 2341,
      "గ్రహం": 2342,
      "ఆశ": 2343,
      "మందు": 2344,
      "ంత్రం": 2345,
      "ళ్లలో": 2346,
      "గ్రామానికి": 2347,
      "క్రా": 2348,
      "నర": 2349,
      "ంద్రా": 2350,
      "చెప్పాడు": 2351,
      "ప్రయో": 2352,
      "టక": 2353,
      "ఖి": 2354,
      "ఆమెను": 2355,
      "సంవత్సరాల": 2356,
      "దేవు": 2357,
      "ందూ": 2358,
      "సమయం": 2359,
      "సంస్కృ": 2360,
      "నేడు": 2361,
      "పెడు": 2362,
      "కేసులు": 2363,
      "మాయ": 2364,
      "ంటీ": 2365,
      "తగా": 2366,
      "మండి": 2367,
      "సేన": 2368,
      "సీసీ": 2369,
      "ంచుకుని": 2370,
      "ములో": 2371,
      "మందికి": 2372,
      "కోట్లు": 2373,
      "ఆంధ్రప్రదేశ్": 2374,
      "ఆసుపత్రి": 2375,
      "తార": 2376,
      "ుని": 2377,
      "తకు": 2378,
      "మణి": 2379,
      "పోతుంది": 2380,
      "భావ": 2381,
      "శిక్ష": 2382,
      "ణంగా": 2383,
      "లన": 2384,
      "కేంద్రమైన": 2385,
      "ఓవర్": 2386,
      "స్ర": 2387,
      "ప్రయత్నం": 2388,
      "కరోనా": 2389,
      "చని": 2390,
      "సారిగా": 2391,
      "ఆశ్": 2392,
      "నీకు": 2393,
      "ఆప": 2394,
      "ట్రి": 2395,
      "ట్టుగా": 2396,
      "న్యం": 2397,
      "ఎఫ్": 2398,
      "ందరి": 2399,
      "ప్రమాదం": 2400,
      "రేషన్": 2401,
      "నష్ట": 2402,
      "అందుబాటు": 2403,
      "హైకోర్టు": 2404,
      "అడ్డు": 2405,
      "కేంద్రంలో": 2406,
      "సామాజిక": 2407,
      "రత్": 2408,
      "ముస్": 2409,
      "కులకు": 2410,
      "య్యి": 2411,
      "చం": 2412,
      "నాథ్": 2413,
      "ప్రకా": 2414,
      "నాయక": 2415,
      "మానవ": 2416,
      "టరీ": 2417,
      "చాడు": 2418,
      "పన": 2419,
      "రష": 2420,
      "కలిగిన": 2421,
      "లాక్": 2422,
      "పర్యా": 2423,
      "యిల్": 2424,
      "రానికి": 2425,
      "ఎవరు": 2426,
      "మార్కెట్": 2427,
      "వాళ్లు": 2428,
      "వేరు": 2429,
      "వల్": 2430,
      "యాద": 2431,
      "పొందు": 2432,
      "కాయ": 2433,
      "సుమారు": 2434,
      "షనల్": 2435,
      "పరిధి": 2436,
      "పత్ర": 2437,
      "కృషి": 2438,
      "అక్": 2439,
      "లిక": 2440,
      "కొడుకు": 2441,
      "మోడీ": 2442,
      "తగిన": 2443,
      "చేస్తారు": 2444,
      "సిబ్బంది": 2445,
      "హామీ": 2446,
      "వ్యాఖ్యా": 2447,
      "29": 2448,
      "మధు": 2449,
      "పోస్టా": 2450,
      "యినా": 2451,
      "నిరా": 2452,
      "ఎంపిక": 2453,
      "ప్రతిని": 2454,
      "చుట్టూ": 2455,
      "అగ్ని": 2456,
      "న్లు": 2457,
      "సేపు": 2458,
      "వేసుకు": 2459,
      "పోయినా": 2460,
      "మరోవైపు": 2461,
      "అభ్యర్థి": 2462,
      "ంలోనే": 2463,
      "మార్గ": 2464,
      "ంచడంతో": 2465,
      "ధాని": 2466,
      "నంది": 2467,
      "దర్శన": 2468,
      "గతా": 2469,
      "వీర": 2470,
      "స్థాన": 2471,
      "పడుతుంది": 2472,
      "దీనిని": 2473,
      "వెలుగు": 2474,
      "ంచగా": 2475,
      "పోస్టాఫీసు": 2476,
      "సినిమాలు": 2477,
      "ారిటీ": 2478,
      "షో": 2479,
      "చెంద": 2480,
      "విశ్వా": 2481,
      "ట్లను": 2482,
      "70": 2483,
      "వస్తే": 2484,
      "ప్రక్రియ": 2485,
      "వివర": 2486,
      "ండీ": 2487,
      "త్మక": 2488,
      "గ్రహి": 2489,
      "క్యూ": 2490,
      "పోయాయి": 2491,
      "బస్సు": 2492,
      "లని": 2493,
      "ాలన్న": 2494,
      "మీకు": 2495,
      "ప్రతిపక్ష": 2496,
      "కళాశాల": 2497,
      "వస్తుంది": 2498,
      "వస్తున్న": 2499,
      "వేత్త": 2500,
      "కేట": 2501,
      "ంచినట్లు": 2502,
      "వివ": 2503,
      "రకాల": 2504,
      "న్నత": 2505,
      "గవర్": 2506,
      "చేసేందుకు": 2507,
      "చేత": 2508,
      "బాగు": 2509,
      "కాన్ని": 2510,
      "పరిమి": 2511,
      "దర్యాప్": 2512,
      "బాధి": 2513,
      "వాని": 2514,
      "గోదా": 2515,
      "త్రా": 2516,
      "తీసుకె": 2517,
      "మ్స్": 2518,
      "లకి": 2519,
      "దర్యాప్తు": 2520,
      "శాసన": 2521,
      "ఖర్": 2522,
      "పూజ": 2523,
      "కళ్ళు": 2524,
      "సరికి": 2525,
      "తీసుకొ": 2526,
      "ంటె": 2527,
      "ఫోటో": 2528,
      "బట్ట": 2529,
      "వుంటుంది": 2530,
      "ులను": 2531,
      "వైఎస్": 2532,
      "ఆదా": 2533,
      "టివ్": 2534,
      "వచ్చారు": 2535,
      "అటు": 2536,
      "నెలకొ": 2537,
      "శుక్ర": 2538,
      "తనం": 2539,
      "విమర్శి": 2540,
      "భ్ర": 2541,
      "రణ్": 2542,
      "కెట్లు": 2543,
      "సాహ": 2544,
      "కావడం": 2545,
      "ముడు": 2546,
      "ఎప్పుడూ": 2547,
      "అభ్యర్థ": 2548,
      "థా": 2549,
      "యిర్": 2550,
      "కొట్ట": 2551,
      "ప్రాణ": 2552,
      "కేసులో": 2553,
      "మరు": 2554,
      "రికార్డు": 2555,
      "కొనుగోలు": 2556,
      "ాలపై": 2557,
      "నాయకులు": 2558,
      "స్నేహి": 2559,
      "దిగు": 2560,
      "గ్రహ": 2561,
      "చ్చరి": 2562,
      "తీసుకున్న": 2563,
      "ప్రాంతాల్లో": 2564,
      "పూర్వ": 2565,
      "భవిష": 2566,
      "రక్త": 2567,
      "ప్రకటించారు": 2568,
      "భయం": 2569,
      "నీవు": 2570,
      "చెప్పే": 2571,
      "ప్రశ్న": 2572,
      "జరుపు": 2573,
      "విద్యార్": 2574,
      "చేసుకుంది": 2575,
      "ఓడి": 2576,
      "భవిష్య": 2577,
      "ఎవరూ": 2578,
      "ఇష్ట": 2579,
      "పండు": 2580,
      "మరొక": 2581,
      "కప్": 2582,
      "పడుతున్న": 2583,
      "వలసిన": 2584,
      "ప్రయాణి": 2585,
      "పోతున్న": 2586,
      "చేసుకుని": 2587,
      "ఉంటుందని": 2588,
      "ప్రాధా": 2589,
      "వ్యాఖ్యలు": 2590,
      "అంటారు": 2591,
      "కునే": 2592,
      "మనో": 2593,
      "చూపు": 2594,
      "శ్మీర్": 2595,
      "మ్రా": 2596,
      "డైరెక్టర్": 2597,
      "ందర": 2598,
      "యులు": 2599,
      "వత": 2600,
      "ాలూ": 2601,
      "రావడం": 2602,
      "శబ్": 2603,
      "పశ్చిమ": 2604,
      "ారాలు": 2605,
      "అవార్డు": 2606,
      "కని": 2607,
      "శిక్షణ": 2608,
      "క్షణం": 2609,
      "ఠి": 2610,
      "సాయం": 2611,
      "సభలో": 2612,
      "ఇంద్ర": 2613,
      "పంట": 2614,
      "తీసుకో": 2615,
      "బహి": 2616,
      "ంగం": 2617,
      "దరు": 2618,
      "ంచారని": 2619,
      "వచ్చాడు": 2620,
      "విజయ్": 2621,
      "బాధ్యత": 2622,
      "క్సి": 2623,
      "చేతిలో": 2624,
      "దేశానికి": 2625,
      "ైర్": 2626,
      "అవుతుంది": 2627,
      "వూ": 2628,
      "పాత": 2629,
      "ంచీ": 2630,
      "అమి": 2631,
      "న్నె": 2632,
      "ంతు": 2633,
      "తిన": 2634,
      "డిసె": 2635,
      "చూసిన": 2636,
      "ంచినా": 2637,
      "పనులు": 2638,
      "హెచ్చరి": 2639,
      "సారు": 2640,
      "నీతి": 2641,
      "వులను": 2642,
      "కార్యకర్": 2643,
      "ఏమీ": 2644,
      "198": 2645,
      "దాంతో": 2646,
      "జరుగుతున్న": 2647,
      "్యు": 2648,
      "టన్": 2649,
      "మిగతా": 2650,
      "ండర్": 2651,
      "పరిశ్రమ": 2652,
      "కళ్యా": 2653,
      "భగ": 2654,
      "కట్టు": 2655,
      "డాక్టర్లు": 2656,
      "ప్రసాద్": 2657,
      "వాళ్ల": 2658,
      "ములను": 2659,
      "సాధారణంగా": 2660,
      "దైన": 2661,
      "ఆరోపించారు": 2662,
      "పిటి": 2663,
      "మాధ్యమిక": 2664,
      "ఫల": 2665,
      "ఫ్రి": 2666,
      "సూపర్": 2667,
      "నియమి": 2668,
      "కనీసం": 2669,
      "హద్దు": 2670,
      "స్థానిక": 2671,
      "ారాన్ని": 2672,
      "ద్దీ": 2673,
      "పదవి": 2674,
      "ళు": 2675,
      "డైన": 2676,
      "రాక": 2677,
      "్యాన్ని": 2678,
      "క్ల": 2679,
      "వాది": 2680,
      "శని": 2681,
      "మిగిలిన": 2682,
      "గోదావరి": 2683,
      "శర్మ": 2684,
      "చేర": 2685,
      "సాయంత్రం": 2686,
      "నల్ల": 2687,
      "మెంటు": 2688,
      "మీడియాలో": 2689,
      "ముంబ": 2690,
      "మూడో": 2691,
      "తీర్పు": 2692,
      "ంజ": 2693,
      "సుల": 2694,
      "ప్రవేశి": 2695,
      "ఉంటా": 2696,
      "నాటికి": 2697,
      "పండి": 2698,
      "ొచ్చు": 2699,
      "షూటింగ్": 2700,
      "నిర్వ": 2701,
      "వరూ": 2702,
      "కెప్టె": 2703,
      "జనవరి": 2704,
      "ప్రేమి": 2705,
      "పను": 2706,
      "ట్లుగా": 2707,
      "పెట్టే": 2708,
      "జిల్ల": 2709,
      "అన్నీ": 2710,
      "బ్యాంకు": 2711,
      "చేయాలి": 2712,
      "ధో": 2713,
      "రొ": 2714,
      "వచ్చాయి": 2715,
      "మండలంలోని": 2716,
      "మాన్ని": 2717,
      "క్రికెట్": 2718,
      "బ్రహ్మ": 2719,
      "దొంగ": 2720,
      "తూర్పు": 2721,
      "ఆదేశి": 2722,
      "వ్యవసాయ": 2723,
      "దూరంగా": 2724,
      "తీవ్రంగా": 2725,
      "జయ్": 2726,
      "హిందూ": 2727,
      "మైనా": 2728,
      "నిమిష": 2729,
      "సమావేశంలో": 2730,
      "ప్లే": 2731,
      "శుక్రవారం": 2732,
      "రాష్ట్రా": 2733,
      "ప్రభావం": 2734,
      "రచయి": 2735,
      "ఆహ్": 2736,
      "స్తుందని": 2737,
      "రాణి": 2738,
      "పెట్టారు": 2739,
      "జన్మి": 2740,
      "మాల": 2741,
      "పరిణా": 2742,
      "చెబుతున్నారు": 2743,
      "కట్టుకు": 2744,
      "వంట": 2745,
      "కోట": 2746,
      "సంస్థలు": 2747,
      "కెప్టెన్": 2748,
      "నిన్ను": 2749,
      "బిడ్డ": 2750,
      "దర్శకత్వంలో": 2751,
      "ఒప్ప": 2752,
      "జైలు": 2753,
      "రాన్ని": 2754,
      "ప్రవేశ": 2755,
      "ఇరు": 2756,
      "ప్రదర్శి": 2757,
      "ధాలు": 2758,
      "గ్రం": 2759,
      "అండ్": 2760,
      "సిరీ": 2761,
      "టిల్": 2762,
      "బాలి": 2763,
      "దానిని": 2764,
      "ముగ్గురు": 2765,
      "వేగంగా": 2766,
      "ముస్లిం": 2767,
      "రాజధాని": 2768,
      "సాగి": 2769,
      "కలా": 2770,
      "వ్రా": 2771,
      "వేడు": 2772,
      "ముగా": 2773,
      "సర్వ": 2774,
      "మొక్క": 2775,
      "పొందిన": 2776,
      "మోహన్": 2777,
      "ఇన్ని": 2778,
      "సోమవారం": 2779,
      "డ్రై": 2780,
      "వర్గం": 2781,
      "అంచనా": 2782,
      "తోపాటు": 2783,
      "మేము": 2784,
      "చౌ": 2785,
      "అదుపు": 2786,
      "వుండే": 2787,
      "క్రమంగా": 2788,
      "ఘన": 2789,
      "దీన్ని": 2790,
      "హాన్ని": 2791,
      "కలిపి": 2792,
      "ంచుకున్న": 2793,
      "మ్య": 2794,
      "చూసింది": 2795,
      "విద్యాల": 2796,
      "వృత్తి": 2797,
      "రాం": 2798,
      "భిన్న": 2799,
      "నివ": 2800,
      "తరగతి": 2801,
      "చిత్రంలో": 2802,
      "రాజే": 2803,
      "బంధు": 2804,
      "శై": 2805,
      "రాజా": 2806,
      "ంచబడింది": 2807,
      "అర్ధ": 2808,
      "బడ్": 2809,
      "దాకా": 2810,
      "మెరు": 2811,
      "సంబంధం": 2812,
      "సూర్య": 2813,
      "సియా": 2814,
      "కడు": 2815,
      "చూశాడు": 2816,
      "డూ": 2817,
      "కేటాయి": 2818,
      "దయ": 2819,
      "ఆయు": 2820,
      "నిర్మాణ": 2821,
      "ందన్న": 2822,
      "సెస్": 2823,
      "సంప్రదా": 2824,
      "తూనే": 2825,
      "అబ్": 2826,
      "పదార్థ": 2827,
      "ళ్లకు": 2828,
      "అందరికీ": 2829,
      "దళ": 2830,
      "నామా": 2831,
      "నాన్న": 2832,
      "నవ": 2833,
      "గుర్తింపు": 2834,
      "ఫ్రె": 2835,
      "చక్ర": 2836,
      "ల్ప": 2837,
      "తమకు": 2838,
      "ాలే": 2839,
      "జీవితం": 2840,
      "దృశ": 2841,
      "ఉన్నాడు": 2842,
      "ఖాన్": 2843,
      "రోడ్": 2844,
      "ఏద": 2845,
      "విదేశీ": 2846,
      "35": 2847,
      "ఇచ్చే": 2848,
      "లాడు": 2849,
      "సెల": 2850,
      "వేర్": 2851,
      "కూడిన": 2852,
      "స్తోందని": 2853,
      "టాల": 2854,
      "సిక": 2855,
      "చెప్పింది": 2856,
      "ఇబ్బ": 2857,
      "బీఆర్ఎస్": 2858,
      "ఒకరు": 2859,
      "ణానికి": 2860,
      "రియ": 2861,
      "ఆదివారం": 2862,
      "చెన్న": 2863,
      "లంక": 2864,
      "అవకాశాలు": 2865,
      "ప్రశ్నించారు": 2866,
      "తెలియజే": 2867,
      "ఉండగా": 2868,
      "ఎనిమి": 2869,
      "వంతు": 2870,
      "ఆకర్": 2871,
      "ంచక": 2872,
      "స్వాత": 2873,
      "చూస్తే": 2874,
      "కరమైన": 2875,
      "స్టో": 2876,
      "తెలంగాణలో": 2877,
      "వేసిన": 2878,
      "రష్యా": 2879,
      "పర్యటన": 2880,
      "హెచ్": 2881,
      "టెస్టు": 2882,
      "ఫే": 2883,
      "సందే": 2884,
      "చ్చా": 2885,
      "సహజ": 2886,
      "చారి": 2887,
      "ముఖం": 2888,
      "వారిలో": 2889,
      "స్థాన్": 2890,
      "తెరకెక్కి": 2891,
      "కొట్టి": 2892,
      "జాబి": 2893,
      "ఆమో": 2894,
      "ఆడి": 2895,
      "మస్": 2896,
      "రింగ్": 2897,
      "చిరు": 2898,
      "అక్ష": 2899,
      "తగ్గ": 2900,
      "రైలు": 2901,
      "సమస్యలు": 2902,
      "అలవా": 2903,
      "చేర్": 2904,
      "వ్యాపార": 2905,
      "కాన్": 2906,
      "పిల్లల": 2907,
      "సొంత": 2908,
      "పరుగుల": 2909,
      "బాయి": 2910,
      "లేవు": 2911,
      "ళ్లను": 2912,
      "మాకు": 2913,
      "పత్రిక": 2914,
      "అర్జు": 2915,
      "ఫార్": 2916,
      "స్ట్రీ": 2917,
      "హిం": 2918,
      "గంటలకు": 2919,
      "నిబంధ": 2920,
      "గురువారం": 2921,
      "పెట్టింది": 2922,
      "సలు": 2923,
      "హృ": 2924,
      "గవర్నర్": 2925,
      "ముక్క": 2926,
      "సమావేశం": 2927,
      "ఆధారంగా": 2928,
      "పటి": 2929,
      "పిలి": 2930,
      "లేచి": 2931,
      "ంచవచ్చు": 2932,
      "ర్మన్": 2933,
      "ప్రస": 2934,
      "రూపాయల": 2935,
      "మంగళవారం": 2936,
      "ఆయనకు": 2937,
      "విద్యుత్": 2938,
      "ఎందుకంటే": 2939,
      "మహిళా": 2940,
      "మృత": 2941,
      "పట్నం": 2942,
      "దాఖ": 2943,
      "ట్రై": 2944,
      "గుల": 2945,
      "ప్యా": 2946,
      "నెట్": 2947,
      "బయలు": 2948,
      "అశ్": 2949,
      "దిశ": 2950,
      "సరిహద్దు": 2951,
      "దూరంలో": 2952,
      "గ్రంథ": 2953,
      "ఇండ": 2954,
      "బుధ": 2955,
      "మరీ": 2956,
      "సరైన": 2957,
      "రేపు": 2958,
      "జరా": 2959,
      "వుగా": 2960,
      "నింగ్": 2961,
      "ఉగ్రవా": 2962,
      "లిక్": 2963,
      "ంటున్నా": 2964,
      "సాలు": 2965,
      "వ్యతిరేకంగా": 2966,
      "రాలి": 2967,
      "అందువల్ల": 2968,
      "పబ్": 2969,
      "సీబీ": 2970,
      "మహిళల": 2971,
      "ఉండేది": 2972,
      "దీనిపై": 2973,
      "ఇబ్బందు": 2974,
      "దేశంలోని": 2975,
      "డిగ్రీ": 2976,
      "ఎన్నికలు": 2977,
      "నేని": 2978,
      "దిగి": 2979,
      "స్తి": 2980,
      "గాక": 2981,
      "ఆత్మ": 2982,
      "సంగీత": 2983,
      "ఆత్మహ": 2984,
      "ప్రతీ": 2985,
      "వంత్": 2986,
      "ఆహార": 2987,
      "ఆస్ట్రే": 2988,
      "మద్య": 2989,
      "చేపట్టి": 2990,
      "దుల": 2991,
      "లాలు": 2992,
      "పద్": 2993,
      "అంతకు": 2994,
      "బోయే": 2995,
      "నటించిన": 2996,
      "మెడి": 2997,
      "బద్ధ": 2998,
      "కుడి": 2999,
      "ఉండాలి": 3000,
      "దేవాల": 3001,
      "ఉన్నత": 3002,
      "నాయకుడు": 3003,
      "పుష్": 3004,
      "సన్ని": 3005,
      "పాన్": 3006,
      "మల్": 3007,
      "చేస్తోంది": 3008,
      "వుంటే": 3009,
      "న్సీ": 3010,
      "నవ్": 3011,
      "నిశ్": 3012,
      "పలువు": 3013,
      "లోక": 3014,
      "పక్కన": 3015,
      "చేయు": 3016,
      "సినీ": 3017,
      "ఎన్టీఆర్": 3018,
      "వదిలి": 3019,
      "పదే": 3020,
      "రోహి": 3021,
      "తోనే": 3022,
      "పంజా": 3023,
      "జనీ": 3024,
      "వంతంగా": 3025,
      "దై": 3026,
      "క్రె": 3027,
      "అంశం": 3028,
      "సాధించిన": 3029,
      "వీటిని": 3030,
      "గలు": 3031,
      "ందనే": 3032,
      "కరు": 3033,
      "కూర": 3034,
      "శాన్ని": 3035,
      "పొడి": 3036,
      "ఎయిర్": 3037,
      "చ్ఛ": 3038,
      "బరు": 3039,
      "రోజూ": 3040,
      "పాఠశాలలు": 3041,
      "కృత": 3042,
      "శంకర్": 3043,
      "ష్య": 3044,
      "ప్రస్తా": 3045,
      "మానా": 3046,
      "మధ్యా": 3047,
      "అంగీకరి": 3048,
      "అంటున్నారు": 3049,
      "నిర్వహించారు": 3050,
      "అయ్యి": 3051,
      "నెలల": 3052,
      "జీవితంలో": 3053,
      "భాగంలో": 3054,
      "శనివారం": 3055,
      "మిత్ర": 3056,
      "పార్టీలు": 3057,
      "దాటి": 3058,
      "లోక్సభ": 3059,
      "45": 3060,
      "విరు": 3061,
      "కోరారు": 3062,
      "కూడదు": 3063,
      "సాడు": 3064,
      "కావడంతో": 3065,
      "శ్రే": 3066,
      "36": 3067,
      "ముందుగా": 3068,
      "బడ్జె": 3069,
      "100": 3070,
      "చేతి": 3071,
      "గెలు": 3072,
      "కుంటే": 3073,
      "ప్రస్తుత": 3074,
      "బిల్లు": 3075,
      "అల్ల": 3076,
      "ఊహి": 3077,
      "పూర్త": 3078,
      "ఇద్దరూ": 3079,
      "ఒకరి": 3080,
      "ఆయా": 3081,
      "ఏప్రి": 3082,
      "టకు": 3083,
      "ారట": 3084,
      "విరా": 3085,
      "రైతు": 3086,
      "పురుషుల": 3087,
      "తేజ": 3088,
      "కనుక": 3089,
      "ఒత్తి": 3090,
      "మొదల": 3091,
      "ఎర్ర": 3092,
      "మంట": 3093,
      "ష్ఠ": 3094,
      "ఉంటారు": 3095,
      "సెప్టె": 3096,
      "భే": 3097,
      "దవ": 3098,
      "చిత్త": 3099,
      "నన్న": 3100,
      "మొదలైన": 3101,
      "ప్రైవేటు": 3102,
      "సినిమాను": 3103,
      "పన్ను": 3104,
      "వివరాలు": 3105,
      "నిర్మాణం": 3106,
      "మంతా": 3107,
      "థియే": 3108,
      "్రు": 3109,
      "పాక్": 3110,
      "కథా": 3111,
      "పార్టీకి": 3112,
      "ణాన్ని": 3113,
      "కార్యదర్శి": 3114,
      "బుధవారం": 3115,
      "క్కా": 3116,
      "రెండవ": 3117,
      "47": 3118,
      "నిలబడి": 3119,
      "ధైర్": 3120,
      "వేశారు": 3121,
      "ర్ల": 3122,
      "హిట్": 3123,
      "ఎవరో": 3124,
      "ద్రి": 3125,
      "నిలు": 3126,
      "యితే": 3127,
      "సమాజ": 3128,
      "వాయు": 3129,
      "కోరుకు": 3130,
      "యుద్ధం": 3131,
      "గడు": 3132,
      "జార్": 3133,
      "టరు": 3134,
      "వాస": 3135,
      "తానికి": 3136,
      "దిగ": 3137,
      "క్రమి": 3138,
      "కార్యక్రమంలో": 3139,
      "అతన్ని": 3140,
      "డితే": 3141,
      "హిందీ": 3142,
      "న్యాయం": 3143,
      "విమర్శలు": 3144,
      "వెనక్కి": 3145,
      "కాలేజీ": 3146,
      "ఎస్పీ": 3147,
      "చూసే": 3148,
      "రూపాయలు": 3149,
      "కురి": 3150,
      "ఆస్ట్రేలియా": 3151,
      "పడ్డాడు": 3152,
      "ఆశి": 3153,
      "31": 3154,
      "48": 3155,
      "కడ": 3156,
      "సినిమాకు": 3157,
      "నేషన్": 3158,
      "నుంచే": 3159,
      "ప్యూ": 3160,
      "వికెట్": 3161,
      "గుజరా": 3162,
      "క్రమంలో": 3163,
      "ప్రశ్ని": 3164,
      "దురు": 3165,
      "37": 3166,
      "కొత్తగా": 3167,
      "నిర్మాత": 3168,
      "పరిచయం": 3169,
      "మాస": 3170,
      "మనకు": 3171,
      "వార్త": 3172,
      "విద్యార్థులు": 3173,
      "శత్రు": 3174,
      "విశ్వవిద్యాల": 3175,
      "సమాధానం": 3176,
      "కున్నారు": 3177,
      "చీఫ్": 3178,
      "కుటుంబా": 3179,
      "ారన్నారు": 3180,
      "కోహ్": 3181,
      "ఆత్మహత్య": 3182,
      "నేర్చు": 3183,
      "వేసింది": 3184,
      "ప్రాంతం": 3185,
      "కుం": 3186,
      "చిత్రాన్ని": 3187,
      "ప్రకటించింది": 3188,
      "కిలోమీటర్ల": 3189,
      "ఆశ్చర్య": 3190,
      "దీర్": 3191,
      "ఫైన": 3192,
      "ర్లో": 3193,
      "నాయుడు": 3194,
      "స్తులు": 3195,
      "అర్ధం": 3196,
      "స్తున్నారని": 3197,
      "ఆగి": 3198,
      "డ్రా": 3199,
      "పల": 3200,
      "ంచనున్నారు": 3201,
      "పుట్టిన": 3202,
      "బడుతుంది": 3203,
      "అక్టో": 3204,
      "చైత": 3205,
      "ప్ల": 3206,
      "కున్నాడు": 3207,
      "దక్షిణా": 3208,
      "ఇష్టం": 3209,
      "కొరకు": 3210,
      "తేడా": 3211,
      "మొదట": 3212,
      "అరెస్టు": 3213,
      "బ్రవరి": 3214,
      "వాతావరణ": 3215,
      "నట్లు": 3216,
      "సంక్షే": 3217,
      "భావం": 3218,
      "హిత": 3219,
      "దశా": 3220,
      "జవా": 3221,
      "బండి": 3222,
      "తెలియదు": 3223,
      "ంగానే": 3224,
      "ప్రక్క": 3225,
      "ఫిబ్రవరి": 3226,
      "ంచ్": 3227,
      "ఏర్పా": 3228,
      "ఓపె": 3229,
      "శ్వర్": 3230,
      "పేద": 3231,
      "ఆకా": 3232,
      "మాను": 3233,
      "కటి": 3234,
      "తుంటే": 3235,
      "స్పి": 3236,
      "చేతులు": 3237,
      "స్నా": 3238,
      "విద్యార్థి": 3239,
      "కుంది": 3240,
      "స్తారని": 3241,
      "లక్ష్మీ": 3242,
      "పరా": 3243,
      "బరి": 3244,
      "పోస్ట్": 3245,
      "గోడ": 3246,
      "వేద": 3247,
      "నికే": 3248,
      "కృతి": 3249,
      "చూడాలి": 3250,
      "కృష్": 3251,
      "ఒక్కో": 3252,
      "తమిళనాడు": 3253,
      "బోర్డు": 3254,
      "ండియా": 3255,
      "వాళ": 3256,
      "లోంచి": 3257,
      "పించింది": 3258,
      "స్తున్నట్లు": 3259,
      "వివరించారు": 3260,
      "ఇచ్చింది": 3261,
      "ఆరా": 3262,
      "హాజర": 3263,
      "కూల": 3264,
      "రిజర్": 3265,
      "ంచె": 3266,
      "నిపుణ": 3267,
      "విధానం": 3268,
      "హణ": 3269,
      "స్తూనే": 3270,
      "మహిళలు": 3271,
      "సుఖ": 3272,
      "పోస్టు": 3273,
      "ఫోర్": 3274,
      "ణ్య": 3275,
      "షీ": 3276,
      "ఈసారి": 3277,
      "క్లా": 3278,
      "బొమ్మ": 3279,
      "భై": 3280,
      "స్త్ర": 3281,
      "పాల్గొన్నారు": 3282,
      "వీలు": 3283,
      "80": 3284,
      "న్నే": 3285,
      "చేసుకున్నారు": 3286,
      "హౌ": 3287,
      "ఎక్స్": 3288,
      "బాలీవుడ్": 3289,
      "ంచుకోవ": 3290,
      "వ్యాధి": 3291,
      "అన్": 3292,
      "విమాన": 3293,
      "చాలామంది": 3294,
      "తోందని": 3295,
      "అడ్": 3296,
      "తుకు": 3297,
      "బడ్డాయి": 3298,
      "థియేటర్": 3299,
      "కోహ్లీ": 3300,
      "2014": 3301,
      "మంచిది": 3302,
      "కొంతమంది": 3303,
      "విడ": 3304,
      "మహారాష్ట": 3305,
      "మూర్": 3306,
      "స్థిర": 3307,
      "పాడ": 3308,
      "ంప్": 3309,
      "ఆశ్ర": 3310,
      "వర్ణ": 3311,
      "బాదు": 3312,
      "దూర": 3313,
      "మండిపడ్డారు": 3314,
      "ఏప్రిల్": 3315,
      "సెల్": 3316,
      "కారులు": 3317,
      "నవం": 3318,
      "గుడి": 3319,
      "్యూని": 3320,
      "మునకు": 3321,
      "ీయ": 3322,
      "సిరీస్": 3323,
      "భరి": 3324,
      "క్షేత్ర": 3325,
      "వాతావర": 3326,
      "త్సవ": 3327,
      "సరఫ": 3328,
      "ప్రాధాన్య": 3329,
      "వతి": 3330,
      "వికెట్లు": 3331,
      "పలువురు": 3332,
      "ఇప్పటికీ": 3333,
      "క్ట్": 3334,
      "ంటోంది": 3335,
      "వలసి": 3336,
      "మిన": 3337,
      "అప్పుడే": 3338,
      "ఉద్యోగం": 3339,
      "ప్రజాస్వా": 3340,
      "లక్ష్మి": 3341,
      "లాగా": 3342,
      "ంతర": 3343,
      "విడ్": 3344,
      "జాల": 3345,
      "రంగంలో": 3346,
      "దారులు": 3347,
      "ఖాళీ": 3348,
      "సంవత్సర": 3349,
      "కూర్చుని": 3350,
      "రాలేదు": 3351,
      "పెద": 3352,
      "కాద": 3353,
      "హన": 3354,
      "వున్నాయి": 3355,
      "శ్రీనివా": 3356,
      "చెప్పుకొ": 3357,
      "అభిమానులు": 3358,
      "ారె": 3359,
      "అంశ": 3360,
      "స్తాను": 3361,
      "ముఖ్యమైన": 3362,
      "చట్టం": 3363,
      "తాలో": 3364,
      "ంచలేక": 3365,
      "స్తుంటే": 3366,
      "రాష్ట్రాల": 3367,
      "ఇద్దరి": 3368,
      "ాల్ని": 3369,
      "ఫ్రికా": 3370,
      "నేషనల్": 3371,
      "కర్ణా": 3372,
      "ఆవే": 3373,
      "ప్రశా": 3374,
      "ంటికి": 3375,
      "అరెస్ట్": 3376,
      "హీరోగా": 3377,
      "కుమారుడు": 3378,
      "నేటి": 3379,
      "ఇబ్బంది": 3380,
      "నాలను": 3381,
      "పత": 3382,
      "తేదీన": 3383,
      "దీర్ఘ": 3384,
      "39": 3385,
      "సాంకే": 3386,
      "గుజరాత్": 3387,
      "స్పీ": 3388,
      "అందుబాటులో": 3389,
      "భారీగా": 3390,
      "స్వాధీ": 3391,
      "197": 3392,
      "ఆటో": 3393,
      "్రెడ్డి": 3394,
      "ప్రణా": 3395,
      "జాతి": 3396,
      "ధరలు": 3397,
      "ఏదైనా": 3398,
      "వర్గాలు": 3399,
      "టీఆర్ఎస్": 3400,
      "సుప్రీంకోర్టు": 3401,
      "డాల": 3402,
      "డ్స్": 3403,
      "పాలకు": 3404,
      "టాక్": 3405,
      "తేలి": 3406,
      "పించి": 3407,
      "్రో": 3408,
      "తెలీ": 3409,
      "బయలుదే": 3410,
      "కలుగు": 3411,
      "ఈమె": 3412,
      "వెల్": 3413,
      "రాష్ట్రాల్లో": 3414,
      "వేలు": 3415,
      "తెచ్చుకు": 3416,
      "ప్రత్యేకంగా": 3417,
      "ఉండటం": 3418,
      "గాల": 3419,
      "చల్ల": 3420,
      "నిషే": 3421,
      "అక్కడే": 3422,
      "పోలీసులకు": 3423,
      "దశాబ్": 3424,
      "సమే": 3425,
      "ఆరోపణలు": 3426,
      "ంట్లు": 3427,
      "కాశ్మీర్": 3428,
      "లైన్": 3429,
      "చిత్రానికి": 3430,
      "యజ": 3431,
      "పెరి": 3432,
      "ప్రాథమి": 3433,
      "రౌ": 3434,
      "ఒకసారి": 3435,
      "దృష్ట": 3436,
      "దగ్గరకు": 3437,
      "దంతా": 3438,
      "సూచించారు": 3439,
      "ంపి": 3440,
      "ారే": 3441,
      "సంఘం": 3442,
      "లేన": 3443,
      "మించి": 3444,
      "సన్న": 3445,
      "కున్నా": 3446,
      "పోలి": 3447,
      "సామర్": 3448,
      "భర": 3449,
      "కేర": 3450,
      "గ్రూ": 3451,
      "ఉన్నాయని": 3452,
      "ప్రపంచంలో": 3453,
      "ప్రణాళి": 3454,
      "ఫ్రా": 3455,
      "వినియోగి": 3456,
      "సరిగ్గా": 3457,
      "వర్ష": 3458,
      "వివాహం": 3459,
      "నమ్మకం": 3460,
      "వ్యవహార": 3461,
      "మ్యాచ్లో": 3462,
      "ఆన్": 3463,
      "చూసుకు": 3464,
      "సైని": 3465,
      "మధ్యాహ్": 3466,
      "యోగం": 3467,
      "చేశారని": 3468,
      "నౌ": 3469,
      "సురే": 3470,
      "అప్": 3471,
      "నిన్న": 3472,
      "కుంటూ": 3473,
      "కమ్యూని": 3474,
      "అభిప్రాయ": 3475,
      "ంచకుండా": 3476,
      "నాటక": 3477,
      "అగ్ర": 3478,
      "నీయ": 3479,
      "అధికారంలోకి": 3480,
      "విమర్శించారు": 3481,
      "కర్ణాటక": 3482,
      "స్లా": 3483,
      "కాలను": 3484,
      "కుటుంబం": 3485,
      "అప్పటికే": 3486,
      "కరె": 3487,
      "నిజానికి": 3488,
      "ఉన్నట్లు": 3489,
      "డాన్ని": 3490,
      "అదన": 3491,
      "పొర": 3492,
      "56": 3493,
      "ఆడు": 3494,
      "ఎప్పటి": 3495,
      "ఏక": 3496,
      "వైరల్": 3497,
      "నలుగురు": 3498,
      "హరణ": 3499,
      "జ్యో": 3500,
      "జంట": 3501,
      "జ్ఞాన": 3502,
      "మ్మడి": 3503,
      "అవినీతి": 3504,
      "ఆటగా": 3505,
      "వ్యతిరేక": 3506,
      "సర్వీ": 3507,
      "చోట": 3508,
      "పచ్చ": 3509,
      "మెద": 3510,
      "యాదవ్": 3511,
      "టెడ్": 3512,
      "బాలబడి": 3513,
      "38": 3514,
      "పట్టణమైన": 3515,
      "ఓటు": 3516,
      "నిర్వహణ": 3517,
      "ట్వి": 3518,
      "మరణ": 3519,
      "చార్య": 3520,
      "కేరళ": 3521,
      "అప్పు": 3522,
      "ల్చి": 3523,
      "వరద": 3524,
      "తలె": 3525,
      "పెట్టాడు": 3526,
      "చార్": 3527,
      "టర్లు": 3528,
      "నూనె": 3529,
      "ష్ణు": 3530,
      "కొనే": 3531,
      "శ్రీకా": 3532,
      "ఉపయోగ": 3533,
      "రూపంలో": 3534,
      "లాది": 3535,
      "జాన్": 3536,
      "అధికంగా": 3537,
      "జూలై": 3538,
      "రాజ్యాంగ": 3539,
      "రాజీనామా": 3540,
      "వాణిజ్య": 3541,
      "ఇత": 3542,
      "ట్వీ": 3543,
      "తొమ్మి": 3544,
      "చేసారు": 3545,
      "ప్రయోజ": 3546,
      "ధరి": 3547,
      "హత": 3548,
      "నెస్": 3549,
      "నూతన": 3550,
      "ప్రచార": 3551,
      "యూనివర్": 3552,
      "రవా": 3553,
      "సిద్ధం": 3554,
      "సింహ": 3555,
      "అమిత్": 3556,
      "బరువు": 3557,
      "షనర్": 3558,
      "చనలు": 3559,
      "పడుతున్నారు": 3560,
      "ప్రభుత్వానికి": 3561,
      "భక్తులు": 3562,
      "చేసినట్లు": 3563,
      "తగ్గు": 3564,
      "49": 3565,
      "కార్యక్రమాలు": 3566,
      "భవిష్యత్తు": 3567,
      "ఇందుకు": 3568,
      "మెగా": 3569,
      "తంత్ర": 3570,
      "తనని": 3571,
      "అవగా": 3572,
      "ఇల్లు": 3573,
      "ట్యూ": 3574,
      "ద్దరూ": 3575,
      "పార్లమెంట్": 3576,
      "సంజయ్": 3577,
      "అన్నది": 3578,
      "పెడ": 3579,
      "నుల": 3580,
      "రేవంత్": 3581,
      "నాయకు": 3582,
      "దాడులు": 3583,
      "మన్న": 3584,
      "ప్రదర్శన": 3585,
      "వసర": 3586,
      "సంతా": 3587,
      "కపోతే": 3588,
      "ందట": 3589,
      "జూన్": 3590,
      "విజయవాడ": 3591,
      "వలస": 3592,
      "వ్యాప": 3593,
      "స్వీకరి": 3594,
      "బహిరంగ": 3595,
      "ఘో": 3596,
      "పిక్": 3597,
      "చేసినా": 3598,
      "బలి": 3599,
      "నిజం": 3600,
      "మామూ": 3601,
      "సంఖ్యలో": 3602,
      "ంచుకున్నారు": 3603,
      "సాంకేతిక": 3604,
      "జరుగుతుంది": 3605,
      "దార్": 3606,
      "కొంచ": 3607,
      "చుట్టు": 3608,
      "అప్పగి": 3609,
      "బృందం": 3610,
      "వేధి": 3611,
      "విష్ణు": 3612,
      "ఉపాధ్యా": 3613,
      "ఎత్తున": 3614,
      "ఉదా": 3615,
      "కట్టి": 3616,
      "ధుల": 3617,
      "ప్రజలను": 3618,
      "అనంత": 3619,
      "నిరో": 3620,
      "చెట్టు": 3621,
      "దరఖా": 3622,
      "ఆరం": 3623,
      "అద్ద": 3624,
      "ఎడ": 3625,
      "అధినేత": 3626,
      "లక్ష్యం": 3627,
      "మేనే": 3628,
      "లేకపోతే": 3629,
      "పథకం": 3630,
      "లోపల": 3631,
      "నిరసన": 3632,
      "బడ్జెట్": 3633,
      "ఐటీ": 3634,
      "గట్టిగా": 3635,
      "షన్స్": 3636,
      "తెలుగులో": 3637,
      "జంతు": 3638,
      "నివసి": 3639,
      "స్థాని": 3640,
      "దక్కి": 3641,
      "కూతురు": 3642,
      "ఫూ": 3643,
      "రథ": 3644,
      "నిరు": 3645,
      "ఉండదు": 3646,
      "వదిలే": 3647,
      "సాహిత్య": 3648,
      "ప్రశం": 3649,
      "ఎనిమిది": 3650,
      "ఎప్పుడు": 3651,
      "మార్పులు": 3652,
      "పరిశోధ": 3653,
      "ఆఫీ": 3654,
      "రైతులు": 3655,
      "ందన": 3656,
      "ఆన": 3657,
      "పురస్": 3658,
      "గణి": 3659,
      "తలుపు": 3660,
      "ఆస్ప": 3661,
      "చాలు": 3662,
      "తెలిసిన": 3663,
      "వేయి": 3664,
      "పరంగా": 3665,
      "ఆగస్టు": 3666,
      "బెంగా": 3667,
      "నివేదిక": 3668,
      "డిసెంబర్": 3669,
      "టీవీ": 3670,
      "కాలేదు": 3671,
      "తెరి": 3672,
      "భౌ": 3673,
      "వెలి": 3674,
      "వసూ": 3675,
      "కృష్ణా": 3676,
      "సరిగా": 3677,
      "రని": 3678,
      "కెరీ": 3679,
      "పరిస్థితులు": 3680,
      "బౌలింగ్": 3681,
      "నుంచీ": 3682,
      "విస్తరి": 3683,
      "అయ్యారు": 3684,
      "వర్గాల": 3685,
      "ఇవాళ": 3686,
      "పిటిషన్": 3687,
      "గుంటూ": 3688,
      "పిలుపు": 3689,
      "పాయింట్": 3690,
      "పెరగ": 3691,
      "అంశాల": 3692,
      "ాలన్నారు": 3693,
      "ఇదిలా": 3694,
      "ప్రారంభం": 3695,
      "ల్లోకి": 3696,
      "కార్మి": 3697,
      "నేర": 3698,
      "కగా": 3699,
      "నష్టం": 3700,
      "చెన్నై": 3701,
      "టీమి": 3702,
      "ఆఫీసు": 3703,
      "నైనా": 3704,
      "టైటిల్": 3705,
      "పుట్టి": 3706,
      "క్లి": 3707,
      "విస్": 3708,
      "ండ్ల": 3709,
      "రులు": 3710,
      "అల్లు": 3711,
      "స్యం": 3712,
      "ప్రచు": 3713,
      "సరఫరా": 3714,
      "తీసుకొని": 3715,
      "వెళు": 3716,
      "పాప": 3717,
      "క్షా": 3718,
      "ఐపీ": 3719,
      "కది": 3720,
      "90": 3721,
      "ంచని": 3722,
      "స్వాధీనం": 3723,
      "యజ్ఞ": 3724,
      "వుండి": 3725,
      "మధ్యలో": 3726,
      "సంతోష": 3727,
      "ప్రాణాలు": 3728,
      "నిర్వహించిన": 3729,
      "కార్యక్రమం": 3730,
      "ప్లాన్": 3731,
      "గాను": 3732,
      "196": 3733,
      "కళ్యాణ్": 3734,
      "టీమిండియా": 3735,
      "వున్నా": 3736,
      "గొడవ": 3737,
      "46": 3738,
      "కోన్నత": 3739,
      "ంగ్స్": 3740,
      "మంత్రులు": 3741,
      "బ్యాటింగ్": 3742,
      "గృహ": 3743,
      "వెంకటే": 3744,
      "బీసీ": 3745,
      "కఠి": 3746,
      "రమణ": 3747,
      "పశు": 3748,
      "ఫిక్": 3749,
      "నిల్": 3750,
      "చాల": 3751,
      "ఉత్తమ": 3752,
      "రక్": 3753,
      "హోం": 3754,
      "ప్రారంభించారు": 3755,
      "తెలియని": 3756,
      "33": 3757,
      "బడ్డ": 3758,
      "గదిలో": 3759,
      "పార్టీలో": 3760,
      "జీవన": 3761,
      "నోటి": 3762,
      "ప్రాథమికోన్నత": 3763,
      "వేరే": 3764,
      "వంతమైన": 3765,
      "గితే": 3766,
      "ఆధు": 3767,
      "అనుభవి": 3768,
      "అనుభ": 3769,
      "విచారి": 3770,
      "రచి": 3771,
      "ంచుకుంది": 3772,
      "సిరి": 3773,
      "హాయి": 3774,
      "భద్రతా": 3775,
      "అవసరమైన": 3776,
      "బయటికి": 3777,
      "ంచుకొని": 3778,
      "అయ్యే": 3779,
      "స్టీ": 3780,
      "వద్దకు": 3781,
      "కావాలని": 3782,
      "గుంటూరు": 3783,
      "భక్తి": 3784,
      "డ్ని": 3785,
      "సామ్రా": 3786,
      "సాను": 3787,
      "మెడికల్": 3788,
      "హోదా": 3789,
      "త్వరలోనే": 3790,
      "మిని": 3791,
      "్యాలు": 3792,
      "తప్పని": 3793,
      "ప్రె": 3794,
      "దాఖలు": 3795,
      "తెలిసింది": 3796,
      "మానసిక": 3797,
      "పరమైన": 3798,
      "రాడు": 3799,
      "నాని": 3800,
      "కొక్క": 3801,
      "రవాణా": 3802,
      "కొంచెం": 3803,
      "మయిన": 3804,
      "హిందు": 3805,
      "తరఫు": 3806,
      "పార్లమెంటు": 3807,
      "యన్స్": 3808,
      "అనుసరి": 3809,
      "స్వయంగా": 3810,
      "వచ్చని": 3811,
      "దర్శకత్వం": 3812,
      "మహారాష్ట్ర": 3813,
      "గొట్ట": 3814,
      "ట్లకు": 3815,
      "తక": 3816,
      "శేఖర్": 3817,
      "ఫ్ట్": 3818,
      "బ్యాంక్": 3819,
      "నగరం": 3820,
      "మెంట్స్": 3821,
      "లైంది": 3822,
      "వెంకట": 3823,
      "కాను": 3824,
      "బ్లాక్": 3825,
      "సంభవి": 3826,
      "వెళ్లే": 3827,
      "ఉన్నది": 3828,
      "తీసుకున్నారు": 3829,
      "పసి": 3830,
      "హను": 3831,
      "సాగింది": 3832,
      "రుల": 3833,
      "మార్చ": 3834,
      "పంజాబ్": 3835,
      "ఇర": 3836,
      "వ్యాఖ్యానించారు": 3837,
      "సిద్ధి": 3838,
      "ర్నీ": 3839,
      "స్టె": 3840,
      "నల": 3841,
      "కేటీఆర్": 3842,
      "స్తం": 3843,
      "ముంబై": 3844,
      "అన్నా": 3845,
      "తల్లిదండ్రులు": 3846,
      "పూర్ణ": 3847,
      "జెపి": 3848,
      "పూడి": 3849,
      "ఉండాలని": 3850,
      "స్థితి": 3851,
      "చర్చలు": 3852,
      "దేశాన్ని": 3853,
      "ప్రస్తావి": 3854,
      "జన్మ": 3855,
      "స్వే": 3856,
      "అత్యధిక": 3857,
      "అలవాటు": 3858,
      "దిన": 3859,
      "బంగారు": 3860,
      "జస్టి": 3861,
      "విశేషం": 3862,
      "గ్యం": 3863,
      "త్వరగా": 3864,
      "కైనా": 3865,
      "భారతీ": 3866,
      "కరంగా": 3867,
      "క్రింద": 3868,
      "వన్నీ": 3869,
      "నేల": 3870,
      "తులతో": 3871,
      "మొత్త": 3872,
      "గొంతు": 3873,
      "అందజే": 3874,
      "తయార": 3875,
      "సింగ": 3876,
      "మాస్": 3877,
      "ంగ్లా": 3878,
      "ప్రత్యక్ష": 3879,
      "వరుసగా": 3880,
      "క్రీడా": 3881,
      "ముడి": 3882,
      "సుబ్బ": 3883,
      "స్తానని": 3884,
      "మ్యూ": 3885,
      "పించ": 3886,
      "లేకపో": 3887,
      "ఫలితంగా": 3888,
      "అవగాహన": 3889,
      "ఈయన": 3890,
      "వాయిదా": 3891,
      "ఆగ్రహం": 3892,
      "యుల": 3893,
      "వజ": 3894,
      "నిర్ధ": 3895,
      "రెండే": 3896,
      "క్షలు": 3897,
      "అత్యా": 3898,
      "వారే": 3899,
      "ఈరోజు": 3900,
      "కంఠ": 3901,
      "ఇటు": 3902,
      "హరీ": 3903,
      "ట్లే": 3904,
      "లెక్": 3905,
      "ఎక్కి": 3906,
      "మృతదే": 3907,
      "త్వాన్ని": 3908,
      "పంచా": 3909,
      "తీసుకోవ": 3910,
      "రస": 3911,
      "వినియోగ": 3912,
      "ందున": 3913,
      "సంగీతం": 3914,
      "ెక్టర్": 3915,
      "కలో": 3916,
      "ణ్ణి": 3917,
      "బాల్": 3918,
      "బ్రహ్": 3919,
      "పల్": 3920,
      "హాజరు": 3921,
      "భారతదేశంలో": 3922,
      "నగరంలో": 3923,
      "కేంద్రా": 3924,
      "ద్దరి": 3925,
      "అయిదు": 3926,
      "పెట్టుకుని": 3927,
      "పట్టుకుని": 3928,
      "స్థల": 3929,
      "పెరిగింది": 3930,
      "తిరి": 3931,
      "దిగిన": 3932,
      "బిజెపి": 3933,
      "పెద్దగా": 3934,
      "బారి": 3935,
      "తదితర": 3936,
      "విశేష": 3937,
      "అనుకున్న": 3938,
      "తరులు": 3939,
      "కరించి": 3940,
      "ఢిల్లీలో": 3941,
      "ఆలయ": 3942,
      "శరీరం": 3943,
      "త్తులు": 3944,
      "వేసే": 3945,
      "పించిన": 3946,
      "నొప్పి": 3947,
      "స్ర్": 3948,
      "ఒడి": 3949,
      "మార్గం": 3950,
      "సంగ": 3951,
      "ల్లూరు": 3952,
      "అప": 3953,
      "నిక్": 3954,
      "వులకు": 3955,
      "వర్షం": 3956,
      "తున్నారని": 3957,
      "ఎటువంటి": 3958,
      "విషయాలు": 3959,
      "చేసుకోవ": 3960,
      "ఎవరైనా": 3961,
      "వాతావరణం": 3962,
      "అవకాశ": 3963,
      "చీర": 3964,
      "డబ్బులు": 3965,
      "నటుడు": 3966,
      "బడే": 3967,
      "పుర": 3968,
      "గ్లా": 3969,
      "వందల": 3970,
      "సమాన": 3971,
      "లింగ": 3972,
      "మధ్యాహ్నం": 3973,
      "చిరం": 3974,
      "చేస్తామని": 3975,
      "ందరూ": 3976,
      "ఉష్ణ": 3977,
      "తరలించారు": 3978,
      "రచన": 3979,
      "దర్శనం": 3980,
      "ముద్ర": 3981,
      "చోట్ల": 3982,
      "తుండ": 3983,
      "రంగం": 3984,
      "సిద్ధా": 3985,
      "నుడు": 3986,
      "తాయని": 3987,
      "మ్మా": 3988,
      "నియోజకవర్గ": 3989,
      "పాత్రలో": 3990,
      "సరే": 3991,
      "రాసిన": 3992,
      "స్తున్నది": 3993,
      "గ్రే": 3994,
      "ప్రత్యర్": 3995,
      "పార్టీల": 3996,
      "సైనిక": 3997,
      "టెలి": 3998,
      "ప్రోత్స": 3999,
      "చెప్పా": 4000,
      "పరిస్థితుల్లో": 4001,
      "వ్యక్తిగత": 4002,
      "స్పష్టంగా": 4003,
      "ఉద్యోగ": 4004,
      "బంగ్లా": 4005,
      "తనకి": 4006,
      "ాల్సిందే": 4007,
      "త్తుగా": 4008,
      "ఇబ్బందులు": 4009,
      "ల్లం": 4010,
      "ారానికి": 4011,
      "ఆయ": 4012,
      "వడ్": 4013,
      "జనసేన": 4014,
      "జొ": 4015,
      "ంబరు": 4016,
      "పన్న": 4017,
      "కావాలి": 4018,
      "శృ": 4019,
      "కర్స్": 4020,
      "ెస్ట్": 4021,
      "విస్తృ": 4022,
      "ప్రయత్నాలు": 4023,
      "గడ్డ": 4024,
      "సల్": 4025,
      "నే్": 4026,
      "సమి": 4027,
      "దుగా": 4028,
      "మిలియన్": 4029,
      "పోర్ట్": 4030,
      "మనుష": 4031,
      "రిక": 4032,
      "పిలు": 4033,
      "చైతన్య": 4034,
      "శ్రీనివాస్": 4035,
      "థ్": 4036,
      "ంచుకునే": 4037,
      "చెంది": 4038,
      "ంపులు": 4039,
      "జస్టిస్": 4040,
      "ఒకవేళ": 4041,
      "సినిమాతో": 4042,
      "ఆకట్టుకు": 4043,
      "ఉచి": 4044,
      "ప్రోత్సహి": 4045,
      "బ్యూ": 4046,
      "కల్యా": 4047,
      "తమై": 4048,
      "చూశా": 4049,
      "ంక్": 4050,
      "గమన": 4051,
      "ప్రభుత్వాన్ని": 4052,
      "తుండగా": 4053,
      "వుడు": 4054,
      "మిడి": 4055,
      "ౌన్": 4056,
      "బంగారం": 4057,
      "చిరంజీవి": 4058,
      "రాని": 4059,
      "కద": 4060,
      "వారీ": 4061,
      "ఉదాహరణ": 4062,
      "ఉమ్మడి": 4063,
      "నడ": 4064,
      "రియల్": 4065,
      "పబ్లిక్": 4066,
      "55": 4067,
      "అంబ": 4068,
      "పులి": 4069,
      "పిల్లలకు": 4070,
      "కారి": 4071,
      "తమే": 4072,
      "ఆధునిక": 4073,
      "తుందో": 4074,
      "పాజి": 4075,
      "పెంచు": 4076,
      "పరిశోధన": 4077,
      "డింగ్": 4078,
      "అధికారం": 4079,
      "బ్రే": 4080,
      "ప్రయోజన": 4081,
      "ఆసియా": 4082,
      "అనుమానం": 4083,
      "మ్మల్ని": 4084,
      "త్వరలో": 4085,
      "34": 4086,
      "యీ": 4087,
      "ప్పున": 4088,
      "డెంట్": 4089,
      "వార్తలు": 4090,
      "కూటమి": 4091,
      "వాలి": 4092,
      "క్రై": 4093,
      "సాధించింది": 4094,
      "వ్యక్తులు": 4095,
      "ఇక్కడి": 4096,
      "విల": 4097,
      "ళ్లుగా": 4098,
      "చెందు": 4099,
      "సహాయం": 4100,
      "నామి": 4101,
      "వున్నాడు": 4102,
      "కోవచ్చు": 4103,
      "కోటి": 4104,
      "రుచి": 4105,
      "ఇవ్వాలని": 4106,
      "మేలు": 4107,
      "ఇరవై": 4108,
      "ంచడంలో": 4109,
      "ఇటీవ": 4110,
      "అయో": 4111,
      "మంద": 4112,
      "ఒక్కసారిగా": 4113,
      "దొరికి": 4114,
      "అధ్యక్షు": 4115,
      "షేర్": 4116,
      "ంచగల": 4117,
      "ంచండి": 4118,
      "దేశాల్లో": 4119,
      "బెంగళ": 4120,
      "దంప": 4121,
      "బలహీ": 4122,
      "నేది": 4123,
      "పాండ": 4124,
      "సెప్టెంబర్": 4125,
      "దళి": 4126,
      "దృష్టిలో": 4127,
      "లాల్": 4128,
      "ఆల్": 4129,
      "నిష్": 4130,
      "వస": 4131,
      "శరీర": 4132,
      "కంట": 4133,
      "గుణ": 4134,
      "కలసి": 4135,
      "అల్": 4136,
      "ఘు": 4137,
      "సీతారా": 4138,
      "ఘి": 4139,
      "సగ": 4140,
      "రోజున": 4141,
      "యము": 4142,
      "ృప్తి": 4143,
      "ర్యాల": 4144,
      "చూసు": 4145,
      "శ్రీలంక": 4146,
      "సిద్ధంగా": 4147,
      "కార్పొ": 4148,
      "మట్టి": 4149,
      "న్షన్": 4150,
      "నెలలో": 4151,
      "టికీ": 4152,
      "జనరల్": 4153,
      "హ్యా": 4154,
      "త్సవం": 4155,
      "కుక్క": 4156,
      "ంచుచు": 4157,
      "ఉద్యమ": 4158,
      "శ్వరరావు": 4159,
      "కోరిక": 4160,
      "తయారీ": 4161,
      "క్రో": 4162,
      "రూమ్": 4163,
      "గృహాలు": 4164,
      "ఒక్కొక్క": 4165,
      "హ్య": 4166,
      "నాశ": 4167,
      "క్రే": 4168,
      "భద్రత": 4169,
      "లన్నీ": 4170,
      "కనిపించింది": 4171,
      "మాధ": 4172,
      "వేసు": 4173,
      "500": 4174,
      "ష్టా": 4175,
      "మెడ": 4176,
      "గౌర": 4177,
      "బాధ్యతలు": 4178,
      "నిపుణులు": 4179,
      "సహకరి": 4180,
      "కుమార్తె": 4181,
      "ంటరి": 4182,
      "వర్మ": 4183,
      "సేవలు": 4184,
      "కరీ": 4185,
      "ఉద్దేశ": 4186,
      "గుణంగా": 4187,
      "లేదన్నారు": 4188,
      "న్నర": 4189,
      "రాక్ష": 4190,
      "ప్రభుత్వాలు": 4191,
      "డెన్": 4192,
      "క్లో": 4193,
      "కురు": 4194,
      "విడుదలైన": 4195,
      "కుంటున్న": 4196,
      "వర్షాలు": 4197,
      "ఇండియన్": 4198,
      "వేడి": 4199,
      "జరుగుతోంది": 4200,
      "ంత్రి": 4201,
      "రావడంతో": 4202,
      "నకి": 4203,
      "మొత్తా": 4204,
      "సంవత్సరాలు": 4205,
      "తరఫున": 4206,
      "ఉత్తరా": 4207,
      "పరచ": 4208,
      "ఏర్పాట్లు": 4209,
      "రేట్": 4210,
      "ఒప్పు": 4211,
      "ఎస్సీ": 4212,
      "సమీపంలో": 4213,
      "ఆస్పత్రి": 4214,
      "బ్రాహ్మ": 4215,
      "సీజన్": 4216,
      "బార్": 4217,
      "కమిషన్": 4218,
      "ట్వీట్": 4219,
      "75": 4220,
      "ఒత్తిడి": 4221,
      "వెల్లడించింది": 4222,
      "మద్యం": 4223,
      "ఫొ": 4224,
      "గంగ": 4225,
      "టమే": 4226,
      "రుణ": 4227,
      "కోసమే": 4228,
      "రచయిత": 4229,
      "నము": 4230,
      "బలంగా": 4231,
      "పేర్": 4232,
      "కూలి": 4233,
      "నగదు": 4234,
      "చివరికి": 4235,
      "టంలో": 4236,
      "వివాహ": 4237,
      "కొర": 4238,
      "వరల్డ్": 4239,
      "సెంటర్": 4240,
      "లెక్కల": 4241,
      "వాన్": 4242,
      "చేయడంతో": 4243,
      "డవు": 4244,
      "శతాబ్ద": 4245,
      "దరఖాస్తు": 4246,
      "కట్": 4247,
      "బల్": 4248,
      "న్సర్": 4249,
      "నిలిచి": 4250,
      "ఇస్లా": 4251,
      "పవి": 4252,
      "తగిలి": 4253,
      "పుట్ట": 4254,
      "పాదన": 4255,
      "కష్టం": 4256,
      "ంచం": 4257,
      "మవుతుంది": 4258,
      "ఛార్": 4259,
      "తెచ్చి": 4260,
      "ంచుకున్నాడు": 4261,
      "చిక్కు": 4262,
      "ంచేవారు": 4263,
      "పాటలు": 4264,
      "ఏది": 4265,
      "పోతూ": 4266,
      "నున్నట్లు": 4267,
      "పట్టించుకో": 4268,
      "అయ్యింది": 4269,
      "గార్": 4270,
      "మంటే": 4271,
      "విన్": 4272,
      "కోలు": 4273,
      "బాక్": 4274,
      "విశాఖపట్నం": 4275,
      "అక్రమ": 4276,
      "దేశవ్యాప్తంగా": 4277,
      "కస్": 4278,
      "డబ్": 4279,
      "నిండి": 4280,
      "చేస్తున్నారని": 4281,
      "గుర్తించారు": 4282,
      "చింత": 4283,
      "లక్ష్మ": 4284,
      "ంచిందని": 4285,
      "సహకార": 4286,
      "చరణ్": 4287,
      "నిధులు": 4288,
      "సామర్థ": 4289,
      "ఎంటర్": 4290,
      "యాలను": 4291,
      "చేస్తున్నాడు": 4292,
      "పిచ్చి": 4293,
      "జారి": 4294,
      "నాల్": 4295,
      "మాం": 4296,
      "దీప్": 4297,
      "మహేష్": 4298,
      "ఖరి": 4299,
      "నార్": 4300,
      "కానికి": 4301,
      "వును": 4302,
      "ఇప్పటివరకు": 4303,
      "ఆంగ్": 4304,
      "పెట్టుబడి": 4305,
      "స్థితిలో": 4306,
      "పిరి": 4307,
      "ద్రో": 4308,
      "ఆహ్వాని": 4309,
      "పేపర్": 4310,
      "అధ్యయ": 4311,
      "చేయటం": 4312,
      "గూడె": 4313,
      "టీసీ": 4314,
      "బిల్": 4315,
      "ంగల్": 4316,
      "జిల్లాలోని": 4317,
      "ంచాను": 4318,
      "దశలో": 4319,
      "వస్తా": 4320,
      "టికెట్": 4321,
      "ఆలయం": 4322,
      "ద్దాం": 4323,
      "స్ఫూ": 4324,
      "చివరకు": 4325,
      "పరిష్కరి": 4326,
      "అక్టోబర్": 4327,
      "పండుగ": 4328,
      "లాన్ని": 4329,
      "దేవా": 4330,
      "సంపద": 4331,
      "అమర్": 4332,
      "ర్రా": 4333,
      "పత్తి": 4334,
      "సూత్ర": 4335,
      "జ్యోతి": 4336,
      "వెబ్": 4337,
      "విభజన": 4338,
      "ఒంటరి": 4339,
      "తీసే": 4340,
      "రమే": 4341,
      "పోతోంది": 4342,
      "శుభ్ర": 4343,
      "వేపు": 4344,
      "బలమైన": 4345,
      "పలి": 4346,
      "భవన": 4347,
      "కుర్": 4348,
      "రైతుల": 4349,
      "ఎన్నికలలో": 4350,
      "పూరి": 4351,
      "ఆవిష్": 4352,
      "ంచాల్సిన": 4353,
      "టిక్": 4354,
      "చ్చితంగా": 4355,
      "షిప్": 4356,
      "కూలంగా": 4357,
      "మెరుగు": 4358,
      "విడుద": 4359,
      "సినిమాల్లో": 4360,
      "గుడ్": 4361,
      "చెయ్యి": 4362,
      "అవత": 4363,
      "ంచేలా": 4364,
      "చదివి": 4365,
      "ఓటమి": 4366,
      "స్ఫూర్తి": 4367,
      "రసా": 4368,
      "భావిస్తున్నారు": 4369,
      "ంబు": 4370,
      "ఆధి": 4371,
      "కుట్ర": 4372,
      "రిజి": 4373,
      "ఇంకో": 4374,
      "ప్రవర్తి": 4375,
      "బ్రిటి": 4376,
      "చేపట్టిన": 4377,
      "అఖి": 4378,
      "నేరుగా": 4379,
      "ద్యో": 4380,
      "పంచాయ": 4381,
      "కోపం": 4382,
      "నెల్లూరు": 4383,
      "కడుపు": 4384,
      "బాలు": 4385,
      "బస్": 4386,
      "మనీ": 4387,
      "వీటిలో": 4388,
      "రోహిత్": 4389,
      "ల్యా": 4390,
      "వుతుంది": 4391,
      "పోర్టు": 4392,
      "అడవి": 4393,
      "నెమ్మ": 4394,
      "లక్ష్యంగా": 4395,
      "పద్మ": 4396,
      "ంజ్": 4397,
      "సంక్షేమ": 4398,
      "తున్నది": 4399,
      "భాషా": 4400,
      "ఓట్లు": 4401,
      "సదు": 4402,
      "గ్గి": 4403,
      "వర్యంలో": 4404,
      "అనుకో": 4405,
      "చుకుని": 4406,
      "ప్రకృతి": 4407,
      "షర్": 4408,
      "2019": 4409,
      "డ్రైవర్": 4410,
      "కాపాడు": 4411,
      "తున్నట్లు": 4412,
      "సభ్యు": 4413,
      "ఎలక్": 4414,
      "శానికి": 4415,
      "ఆధ్": 4416,
      "భాగస్వా": 4417,
      "మేం": 4418,
      "ఫొటో": 4419,
      "సాధ్యం": 4420,
      "ీకరణ": 4421,
      "44": 4422,
      "క్ష్": 4423,
      "బెదిరి": 4424,
      "పతా": 4425,
      "కొన్న": 4426,
      "ట్రంప్": 4427,
      "అనూ": 4428,
      "నేనే": 4429,
      "భావన": 4430,
      "పుణ్య": 4431,
      "షియల్": 4432,
      "చిత్తూరు": 4433,
      "నృ": 4434,
      "పరీక్షలు": 4435,
      "వెళ్లిన": 4436,
      "తమ్ము": 4437,
      "నిము": 4438,
      "దేవత": 4439,
      "తొమ్మిది": 4440,
      "పోలింగ్": 4441,
      "వీధి": 4442,
      "నిరూ": 4443,
      "పరిధిలో": 4444,
      "రామకృష్ణ": 4445,
      "ఎండ": 4446,
      "ఢీ": 4447,
      "కూరు": 4448,
      "కెమె": 4449,
      "పార్ట్": 4450,
      "వెనక": 4451,
      "ఏమిటి": 4452,
      "ఉండడం": 4453,
      "సోదరు": 4454,
      "సీబీఐ": 4455,
      "32": 4456,
      "మేకర్స్": 4457,
      "గ్రామీ": 4458,
      "యండి": 4459,
      "ఫిల్": 4460,
      "సంబంధిత": 4461,
      "స్టేట్": 4462,
      "చుకో": 4463,
      "ప్రచురి": 4464,
      "లక్షలు": 4465,
      "వేషన్": 4466,
      "జున": 4467,
      "మండలి": 4468,
      "వంటివి": 4469,
      "వెళ్ళే": 4470,
      "ఈడీ": 4471,
      "కేష్": 4472,
      "జరిగాయి": 4473,
      "ఆకర్షి": 4474,
      "నవంబర్": 4475,
      "ఏర్పడింది": 4476,
      "అందించారు": 4477,
      "ధృ": 4478,
      "ద్వే": 4479,
      "ఆహారం": 4480,
      "స్తుంటారు": 4481,
      "తెగ": 4482,
      "ఎదురుగా": 4483,
      "శక్": 4484,
      "గై": 4485,
      "లభించింది": 4486,
      "ఫలిత": 4487,
      "కప్పు": 4488,
      "2013": 4489,
      "షాక్": 4490,
      "సంవత్సరంలో": 4491,
      "సీమ": 4492,
      "సత్": 4493,
      "సిగ్గు": 4494,
      "డాక్": 4495,
      "సేకరి": 4496,
      "తీసుకోవాలని": 4497,
      "ఆప్": 4498,
      "మానాలు": 4499,
      "సర్వే": 4500,
      "యంతో": 4501,
      "ద్రవ్య": 4502,
      "కరం": 4503,
      "గర్భ": 4504,
      "తతో": 4505,
      "ఇంజనీ": 4506,
      "చెరువు": 4507,
      "మొహ": 4508,
      "ప్రయాణం": 4509,
      "ంచబడిన": 4510,
      "రాఘ": 4511,
      "వచ్ఛ": 4512,
      "గూడ": 4513,
      "తక్కువగా": 4514,
      "ఈనెల": 4515,
      "ఇంటర్వ్యూ": 4516,
      "వివే": 4517,
      "స్వతంత్ర": 4518,
      "మనసులో": 4519,
      "లోపలికి": 4520,
      "ట్యా": 4521,
      "తీర": 4522,
      "తరహా": 4523,
      "మైదా": 4524,
      "అతిపెద్ద": 4525,
      "వ్యతిరేకి": 4526,
      "కత్తి": 4527,
      "ప్రేక్షకుల": 4528,
      "ఓవర్లలో": 4529,
      "పడితే": 4530,
      "ప్రాధాన్యత": 4531,
      "పోయ": 4532,
      "సమ్": 4533,
      "విన్న": 4534,
      "రేఖ": 4535,
      "ప్రధానంగా": 4536,
      "చేసుకొని": 4537,
      "తోడు": 4538,
      "కేసి": 4539,
      "ఒప్పందం": 4540,
      "ఏకంగా": 4541,
      "గిల్": 4542,
      "పర్యటి": 4543,
      "పవిత్ర": 4544,
      "చెప్పడం": 4545,
      "ంటుందని": 4546,
      "శర": 4547,
      "ముద్దు": 4548,
      "సీట్లు": 4549,
      "నేతృ": 4550,
      "పునరు": 4551,
      "ఎగ్": 4552,
      "అయినప్పటికీ": 4553,
      "స్టిక్": 4554,
      "పుల": 4555,
      "కాలంగా": 4556,
      "పడ్డాయి": 4557,
      "ఇండస్ట్రీ": 4558,
      "శుభ": 4559,
      "సాంగ్": 4560,
      "సభ్యుల": 4561,
      "పారిశ్రా": 4562,
      "హౌస్": 4563,
      "విఫల": 4564,
      "కీర్తి": 4565,
      "భారతదేశం": 4566,
      "ఫస్ట్": 4567,
      "జాగ్రత్తగా": 4568,
      "వెలువ": 4569,
      "రాష్ట్రంలోని": 4570,
      "చిత్రాలు": 4571,
      "రాష్ట్రపతి": 4572,
      "వయస్సు": 4573,
      "ర్ణ": 4574,
      "కార్యకలా": 4575,
      "నియంత్ర": 4576,
      "నిర్మించిన": 4577,
      "సలహా": 4578,
      "నామ": 4579,
      "సులో": 4580,
      "న్యాయమూర్తి": 4581,
      "ఏర్పడిన": 4582,
      "ఆదాయం": 4583,
      "చీకటి": 4584,
      "వున్నారు": 4585,
      "బాబా": 4586,
      "కన్నీ": 4587,
      "గల్": 4588,
      "వౌ": 4589,
      "నాయి": 4590,
      "నిజంగా": 4591,
      "సుకుని": 4592,
      "వలెను": 4593,
      "ఆధ్వర్యంలో": 4594,
      "నె్": 4595,
      "కాఫీ": 4596,
      "నీళ్ళు": 4597,
      "దేశాలలో": 4598,
      "ంటాను": 4599,
      "పోరాటం": 4600,
      "ఖీ": 4601,
      "రకర": 4602,
      "ూర్": 4603,
      "క్కె": 4604,
      "అత్యు": 4605,
      "అదుపులోకి": 4606,
      "మ్యూజి": 4607,
      "పెట్రో": 4608,
      "తప్పకుండా": 4609,
      "తుంటారు": 4610,
      "చూస్తున్న": 4611,
      "స్తాం": 4612,
      "ఇంగ్లీ": 4613,
      "మలు": 4614,
      "వైన": 4615,
      "గడం": 4616,
      "వడ్డీ": 4617,
      "అలం": 4618,
      "సిద్ద": 4619,
      "ాల్సింది": 4620,
      "ంటున్నాడు": 4621,
      "ఎస్టీ": 4622,
      "అనిపించింది": 4623,
      "తోట": 4624,
      "సందర్శి": 4625,
      "సదుపా": 4626,
      "ఖండ": 4627,
      "ంచుకోవడం": 4628,
      "పోతున్నారు": 4629,
      "ఇరా": 4630,
      "లోపు": 4631,
      "అత్త": 4632,
      "దిలీ": 4633,
      "పక": 4634,
      "లాభ": 4635,
      "పెట్టుబడు": 4636,
      "గని": 4637,
      "మొట్ట": 4638,
      "సమర్థ": 4639,
      "రక్తం": 4640,
      "బెంగళూరు": 4641,
      "పసు": 4642,
      "ంచాల్సి": 4643,
      "కర్త": 4644,
      "కండ": 4645,
      "సక్": 4646,
      "పంపిణీ": 4647,
      "రేటు": 4648,
      "పాత్రలు": 4649,
      "పవర్": 4650,
      "ఎత్తి": 4651,
      "విభాగా": 4652,
      "వర్ణి": 4653,
      "అస్": 4654,
      "గాన్ని": 4655,
      "గొండ": 4656,
      "కెరీర్": 4657,
      "కామె": 4658,
      "ఊరి": 4659,
      "గోల్": 4660,
      "పాలెం": 4661,
      "ఆరోగ్యం": 4662,
      "రాదు": 4663,
      "లేవ": 4664,
      "స్వచ్ఛ": 4665,
      "్యాల": 4666,
      "విడిచి": 4667,
      "మొహం": 4668,
      "కనిపించ": 4669,
      "పాల్గొన": 4670,
      "ఏపీలో": 4671,
      "చేరిన": 4672,
      "మారా": 4673,
      "ల్సీ": 4674,
      "ఇచ్చాడు": 4675,
      "మోసం": 4676,
      "చెప్పాలి": 4677,
      "సంబంధాలు": 4678,
      "ప్రైవేట్": 4679,
      "జ్రా": 4680,
      "నువ్": 4681,
      "మందిని": 4682,
      "క్రీడ": 4683,
      "మెత్త": 4684,
      "వర్క్": 4685,
      "వైద్యులు": 4686,
      "జమ్": 4687,
      "క్కున": 4688,
      "తారని": 4689,
      "అభిమాను": 4690,
      "ర్చి": 4691,
      "టాప్": 4692,
      "బ్యాక్": 4693,
      "విజ్ఞ": 4694,
      "కిల్": 4695,
      "నిమిషాల": 4696,
      "మాదిరి": 4697,
      "మాట్లాడే": 4698,
      "ఎదుర": 4699,
      "వల్లే": 4700,
      "ఉప్పు": 4701,
      "పడుతూ": 4702,
      "ఫలితాలు": 4703,
      "మైతే": 4704,
      "ఎగు": 4705,
      "కంలో": 4706,
      "మూడే": 4707,
      "కలుపు": 4708,
      "ప్రభాస్": 4709,
      "చైర్మన్": 4710,
      "దిశగా": 4711,
      "కస్ట": 4712,
      "ట్లలో": 4713,
      "అనుగుణంగా": 4714,
      "వచ్చినా": 4715,
      "ద్వీ": 4716,
      "సంస్థల": 4717,
      "నియంత్రణ": 4718,
      "మంత్రిత్వ": 4719,
      "సెంచ": 4720,
      "చేసుకునే": 4721,
      "కోప": 4722,
      "ఎవరికీ": 4723,
      "ప్రతినిధి": 4724,
      "దాల": 4725,
      "నీటిని": 4726,
      "దుః": 4727,
      "జెండా": 4728,
      "టాలీవుడ్": 4729,
      "బౌలర్": 4730,
      "అవ్వ": 4731,
      "సిక్": 4732,
      "ప్రాంతాల": 4733,
      "ఎమ్మెల్సీ": 4734,
      "దారుల": 4735,
      "చేపట్టారు": 4736,
      "వాం": 4737,
      "చేయకుండా": 4738,
      "క్రియే": 4739,
      "సాక్ష": 4740,
      "ండ్లు": 4741,
      "వ్యవహారం": 4742,
      "సెన్": 4743,
      "బాలిక": 4744,
      "డట": 4745,
      "బుద్ధి": 4746,
      "ట్రైలర్": 4747,
      "సంయు": 4748,
      "నోటీ": 4749,
      "అంతేకాకుండా": 4750,
      "నలి": 4751,
      "ంచడమే": 4752,
      "మ్మం": 4753,
      "భోజనం": 4754,
      "ఖ్": 4755,
      "తరం": 4756,
      "స్వి": 4757,
      "కుప్ప": 4758,
      "ముర": 4759,
      "తాత్": 4760,
      "ఇటువంటి": 4761,
      "చేశాయి": 4762,
      "స్కూల్": 4763,
      "నను": 4764,
      "మంచు": 4765,
      "ప్రెస్": 4766,
      "కొద్దీ": 4767,
      "పోవటం": 4768,
      "నేతల": 4769,
      "రోజులుగా": 4770,
      "ఇవ్వడం": 4771,
      "ార్హం": 4772,
      "మావో": 4773,
      "మిలీ": 4774,
      "హైదరాబాద్లో": 4775,
      "2లో": 4776,
      "నెర": 4777,
      "వేదికగా": 4778,
      "వాదన": 4779,
      "తెలివి": 4780,
      "బియా": 4781,
      "బెల్": 4782,
      "ఎంట": 4783,
      "ప్రభావి": 4784,
      "చాటు": 4785,
      "ఉపాధి": 4786,
      "నెమ్మదిగా": 4787,
      "ోగ్ర": 4788,
      "కాళ్ళ": 4789,
      "ంచేది": 4790,
      "తిరుపతి": 4791,
      "న్నింటి": 4792,
      "బుక్": 4793,
      "చల": 4794,
      "పోలీసుల": 4795,
      "స్పీకర్": 4796,
      "బెట్ట": 4797,
      "సవి": 4798,
      "ఉన్నారని": 4799,
      "కథలు": 4800,
      "య్యాక": 4801,
      "ఆవిడ": 4802,
      "పల్లిలో": 4803,
      "యార్": 4804,
      "యింట్": 4805,
      "కొద్దిగా": 4806,
      "నచ్చ": 4807,
      "యస్": 4808,
      "రాధ": 4809,
      "్రాలు": 4810,
      "ఉద్యోగు": 4811,
      "గమనార్హం": 4812,
      "ఎదుర్": 4813,
      "చొప్పున": 4814,
      "తడి": 4815,
      "బిజీ": 4816,
      "విజయన": 4817,
      "నినా": 4818,
      "లాగే": 4819,
      "దుర": 4820,
      "సెంచరీ": 4821,
      "ఎక్": 4822,
      "ఎకర": 4823,
      "అయ్యాయి": 4824,
      "కాంతి": 4825,
      "సాగర్": 4826,
      "క్రాంతి": 4827,
      "నూలు": 4828,
      "మయ్య": 4829,
      "కోలేక": 4830,
      "స్వాతంత్ర": 4831,
      "ప్రమో": 4832,
      "ఆమోది": 4833,
      "రైతులకు": 4834,
      "కఠిన": 4835,
      "ఉన్నప్పుడు": 4836,
      "ఇంగ్లాండ్": 4837,
      "గ్రామీణ": 4838,
      "గతం": 4839,
      "తదు": 4840,
      "దరణ": 4841,
      "ంచినట్టు": 4842,
      "చరిత్రలో": 4843,
      "దగ్గరికి": 4844,
      "ఫుల్": 4845,
      "ప్రొడ": 4846,
      "టికల్": 4847,
      "వాదం": 4848,
      "మిస్": 4849,
      "లైట్": 4850,
      "అనారో": 4851,
      "వాడే": 4852,
      "ప్రమ": 4853,
      "బంగ్లాదేశ్": 4854,
      "వస్తోంది": 4855,
      "తదితరులు": 4856,
      "లలి": 4857,
      "నీళ్లు": 4858,
      "ఆపరేషన్": 4859,
      "తున్నాయని": 4860,
      "ప్రగతి": 4861,
      "కానుంది": 4862,
      "విషా": 4863,
      "ఉత్తర్": 4864,
      "స్తున్నాను": 4865,
      "విజయనగ": 4866,
      "షను": 4867,
      "స్వరూ": 4868,
      "పడం": 4869,
      "రన్": 4870,
      "కూర్చో": 4871,
      "తదుపరి": 4872,
      "బలం": 4873,
      "సమయానికి": 4874,
      "ఆశ్రయి": 4875,
      "ఉష్ణోగ్ర": 4876,
      "ఊపిరి": 4877,
      "మైనది": 4878,
      "2023": 4879,
      "స్థాయికి": 4880,
      "ట్విట్ట": 4881,
      "విపరీ": 4882,
      "రాకుండా": 4883,
      "మిలి": 4884,
      "డల్": 4885,
      "బన్": 4886,
      "యన్నారు": 4887,
      "జిత్": 4888,
      "కనుగొ": 4889,
      "అసహ": 4890,
      "చేసాడు": 4891,
      "ప్రతిభ": 4892,
      "అణు": 4893,
      "రాగానే": 4894,
      "తామని": 4895,
      "కృతిక": 4896,
      "చల్": 4897,
      "కిడ్": 4898,
      "ండింగ్": 4899,
      "శాశ్": 4900,
      "వాటిలో": 4901,
      "నివేది": 4902,
      "నిలిచింది": 4903,
      "బ్రిటీ": 4904,
      "టప్పుడు": 4905,
      "సీఐ": 4906,
      "విజయాన్ని": 4907,
      "అరి": 4908,
      "భారతదేశ": 4909,
      "ధర్మాస": 4910,
      "ఖై": 4911,
      "లోపే": 4912,
      "ప్రియ": 4913,
      "అద్భుతమైన": 4914,
      "పేర్లు": 4915,
      "శ్రీరా": 4916,
      "విలువైన": 4917,
      "కాన": 4918,
      "రికార్": 4919,
      "మహమ్మ": 4920,
      "జీవితాన్ని": 4921,
      "తున్నాను": 4922,
      "వినియోగం": 4923,
      "దొరక": 4924,
      "దినో": 4925,
      "కోడ": 4926,
      "నవీ": 4927,
      "నమ్మి": 4928,
      "జపా": 4929,
      "మేర": 4930,
      "పెళ్ళ": 4931,
      "తొలు": 4932,
      "జ్ఞానం": 4933,
      "చదవ": 4934,
      "సద": 4935,
      "అడ్డ": 4936,
      "చలి": 4937,
      "మెన్": 4938,
      "రెడీ": 4939,
      "ప్రియా": 4940,
      "గాలను": 4941,
      "కన్నడ": 4942,
      "ఎప్పు": 4943,
      "చేస్తున్నాయి": 4944,
      "బాస్": 4945,
      "ఆం": 4946,
      "వారితో": 4947,
      "ప్రకటించిన": 4948,
      "ట్లతో": 4949,
      "కార్యాలయం": 4950,
      "ందరికీ": 4951,
      "రఘు": 4952,
      "బలహీన": 4953,
      "ఖండి": 4954,
      "పారా": 4955,
      "వాహన": 4956,
      "వేడుక": 4957,
      "శె": 4958,
      "హాట్": 4959,
      "రోజుకు": 4960,
      "జరిపిన": 4961,
      "ఇదంతా": 4962,
      "ఇజ్రా": 4963,
      "క్యం": 4964,
      "మున్సి": 4965,
      "చేయగా": 4966,
      "కరించారు": 4967,
      "సాంస్": 4968,
      "99": 4969,
      "ణుడు": 4970,
      "షియా": 4971,
      "ఫలితం": 4972,
      "స్క్": 4973,
      "ర్షణ": 4974,
      "డిజి": 4975,
      "స్టూ": 4976,
      "తీసుకోవడం": 4977,
      "గౌరవ": 4978,
      "ప్రవర్": 4979,
      "పైనే": 4980,
      "ప్రొఫె": 4981,
      "రహస్య": 4982,
      "కోర": 4983,
      "ఒకప్పుడు": 4984,
      "ఆదేశాలు": 4985,
      "పర్వత": 4986,
      "ట్రె": 4987,
      "శాస్త్రి": 4988,
      "అబ్బాయి": 4989,
      "రిజర్వేషన్": 4990,
      "ఈవె": 4991,
      "డియం": 4992,
      "ఆమెకి": 4993,
      "నోరు": 4994,
      "వస్తుందని": 4995,
      "ఇవన్నీ": 4996,
      "గులా": 4997,
      "బెట్టి": 4998,
      "మాల్": 4999,
      "వాటికి": 5000,
      "సంచలన": 5001,
      "ఆమ్": 5002,
      "వళి": 5003,
      "శశి": 5004,
      "శాసనసభ": 5005,
      "పారిశ్రామిక": 5006,
      "ఎక్కు": 5007,
      "ంటారని": 5008,
      "పోటు": 5009,
      "రాజకీయాల్లో": 5010,
      "ఆక్రమి": 5011,
      "అక్కడికి": 5012,
      "ంకా": 5013,
      "ధ్యం": 5014,
      "సచి": 5015,
      "కూడదని": 5016,
      "కౌంటర్": 5017,
      "కార్యకర్త": 5018,
      "ఫ్రెండ్": 5019,
      "ంత్య": 5020,
      "గ్స్": 5021,
      "అర్జున్": 5022,
      "డొ": 5023,
      "ఎక్కడా": 5024,
      "గార": 5025,
      "తనే": 5026,
      "అభిప్రాయం": 5027,
      "టెస్ట్": 5028,
      "చరణ": 5029,
      "చారాన్ని": 5030,
      "సమూ": 5031,
      "స్పా": 5032,
      "కావు": 5033,
      "పడటం": 5034,
      "యూనివర్సిటీ": 5035,
      "నేర్": 5036,
      "చేయలేదు": 5037,
      "కప్పుడు": 5038,
      "వాడిని": 5039,
      "కొచ్చి": 5040,
      "అడుగుల": 5041,
      "బ్రిటిష్": 5042,
      "బండ": 5043,
      "కిరణ్": 5044,
      "ప్రమాణ": 5045,
      "ంచామని": 5046,
      "శ్వరు": 5047,
      "నిర్వహించ": 5048,
      "మాలి": 5049,
      "చూస్తున్నారు": 5050,
      "విమానా": 5051,
      "ముంద": 5052,
      "తీసిన": 5053,
      "ఎరు": 5054,
      "వినో": 5055,
      "తానే": 5056,
      "శైలి": 5057,
      "వరంగల్": 5058,
      "పరిగణి": 5059,
      "ప్రది": 5060,
      "స్తుండగా": 5061,
      "అనగా": 5062,
      "ఆవేదన": 5063,
      "ఆదిత్య": 5064,
      "రాను": 5065,
      "తెలుస్తుంది": 5066,
      "శ్రీనివాస": 5067,
      "వాసు": 5068,
      "చెల": 5069,
      "టీమ్": 5070,
      "అట": 5071,
      "మొబై": 5072,
      "నటిస్తున్న": 5073,
      "హైదరాబాదు": 5074,
      "ఆనందం": 5075,
      "సులభ": 5076,
      "పిండి": 5077,
      "వస్తున్నాయి": 5078,
      "చేరింది": 5079,
      "ఫైనల్": 5080,
      "పిలుపుని": 5081,
      "పంచాయతీ": 5082,
      "మిషన్": 5083,
      "పుల్": 5084,
      "యాక్షన్": 5085,
      "వంశీ": 5086,
      "సైన్యం": 5087,
      "వివరాలను": 5088,
      "స్కోరు": 5089,
      "నీల్": 5090,
      "స్పందన": 5091,
      "భూతి": 5092,
      "నియన్": 5093,
      "ఎమ్మెల్యేలు": 5094,
      "ఐక్య": 5095,
      "పప్పు": 5096,
      "ర్షి": 5097,
      "అంశంపై": 5098,
      "65": 5099,
      "లేదో": 5100,
      "సమాజం": 5101,
      "తిరస్": 5102,
      "పనిచేసే": 5103,
      "బృంద": 5104,
      "అటువంటి": 5105,
      "తిరగ": 5106,
      "ాల్లోని": 5107,
      "ందేమో": 5108,
      "ప్రధానమంత్రి": 5109,
      "కుండ": 5110,
      "గుప్": 5111,
      "67": 5112,
      "కంగ": 5113,
      "పనికి": 5114,
      "మతం": 5115,
      "మద్రా": 5116,
      "ంచటానికి": 5117,
      "తుడి": 5118,
      "వెండి": 5119,
      "జిల్లాకు": 5120,
      "చంప": 5121,
      "దౌ": 5122,
      "రాసి": 5123,
      "దీక్ష": 5124,
      "ంచును": 5125,
      "చేసుకున్నాడు": 5126,
      "లక్షణ": 5127,
      "శబ్ద": 5128,
      "శ్యా": 5129,
      "సగం": 5130,
      "ట్రాఫిక్": 5131,
      "అదనపు": 5132,
      "ప్రయోజనం": 5133,
      "సగటు": 5134,
      "ఊరు": 5135,
      "సాల": 5136,
      "విమానాశ్ర": 5137,
      "42": 5138,
      "ణులు": 5139,
      "గానికి": 5140,
      "కనిపిస్తుంది": 5141,
      "ందాన్ని": 5142,
      "నిబంధన": 5143,
      "ఆస్": 5144,
      "దుకా": 5145,
      "మ్మని": 5146,
      "వంగా": 5147,
      "ప్రవహి": 5148,
      "తీసుకుంది": 5149,
      "ఖు": 5150,
      "కనిపిస్తోంది": 5151,
      "ఎంతగా": 5152,
      "సినిమాల": 5153,
      "సంచల": 5154,
      "అలీ": 5155,
      "అతడిని": 5156,
      "ల్లోనూ": 5157,
      "హోటల్": 5158,
      "హింస": 5159,
      "ఏమైనా": 5160,
      "ారన్న": 5161,
      "సోనియా": 5162,
      "జాబితాలో": 5163,
      "సమాజంలో": 5164,
      "స్థలం": 5165,
      "కోర్టులో": 5166,
      "విక": 5167,
      "రాజ్యసభ": 5168,
      "గూడెం": 5169,
      "లబ్": 5170,
      "వాలో": 5171,
      "మీదుగా": 5172,
      "కెట్ల": 5173,
      "సెట్": 5174,
      "సత్యనారాయణ": 5175,
      "మనస్సు": 5176,
      "8లో": 5177,
      "మనే": 5178,
      "క్షో": 5179,
      "దానిపై": 5180,
      "మిక్": 5181,
      "రూపం": 5182,
      "బిజి": 5183,
      "ారనే": 5184,
      "సంప్రది": 5185,
      "టీజర్": 5186,
      "వేసుకుని": 5187,
      "నవల": 5188,
      "సెంట": 5189,
      "ప్రమాదంలో": 5190,
      "స్తున్నామని": 5191,
      "నియోజకవర్గం": 5192,
      "బాట": 5193,
      "ఐదే": 5194,
      "బంతి": 5195,
      "శిశు": 5196,
      "హాస్పి": 5197,
      "గ్రూప్": 5198,
      "శ్య": 5199,
      "అందమైన": 5200,
      "నికీ": 5201,
      "సీరియ": 5202,
      "దీప": 5203,
      "నిర్వాహ": 5204,
      "టోర్నీ": 5205,
      "అప్రమ": 5206,
      "శ్వరి": 5207,
      "చివర": 5208,
      "మరిన్ని": 5209,
      "చెల్లె": 5210,
      "పురంలో": 5211,
      "కేజీ": 5212,
      "మీదకు": 5213,
      "అందంగా": 5214,
      "ఉద్యోగాలు": 5215,
      "అధ్యయనం": 5216,
      "పోవచ్చు": 5217,
      "ప్రాంతాలలో": 5218,
      "సురేష్": 5219,
      "రకరకాల": 5220,
      "ఇతరు": 5221,
      "బద్ద": 5222,
      "నటించారు": 5223,
      "ఆసుపత్రికి": 5224,
      "స్వాతంత్య": 5225,
      "గలుగు": 5226,
      "తొలుత": 5227,
      "గను": 5228,
      "అతడికి": 5229,
      "పాదయాత్ర": 5230,
      "ప్రశాంత": 5231,
      "ప్రసం": 5232,
      "యువత": 5233,
      "నటన": 5234,
      "నిర్మించారు": 5235,
      "రహదారి": 5236,
      "విసి": 5237,
      "ండును": 5238,
      "బ్రిటన్": 5239,
      "నాయకత్వం": 5240,
      "వసూలు": 5241,
      "43": 5242,
      "ధను": 5243,
      "కాడ": 5244,
      "చేస్తున్నట్లు": 5245,
      "పరిసర": 5246,
      "తెలుగుదేశం": 5247,
      "అంతేకాదు": 5248,
      "జల్": 5249,
      "ప్రసిద్ధి": 5250,
      "పోష": 5251,
      "రీతిలో": 5252,
      "నిలదీ": 5253,
      "శక్తిని": 5254,
      "విక్రమ్": 5255,
      "పురాతన": 5256,
      "వ్యాపారం": 5257,
      "అగు": 5258,
      "మెదడు": 5259,
      "ధార": 5260,
      "ఎవరికి": 5261,
      "పసుపు": 5262,
      "సమితి": 5263,
      "గంగా": 5264,
      "6లో": 5265,
      "కాంత్": 5266,
      "కోవటం": 5267,
      "కదిలి": 5268,
      "సాంస్కృతిక": 5269,
      "నాగే": 5270,
      "గోపాల": 5271,
      "వాతి": 5272,
      "జింగ్": 5273,
      "స్తుండ": 5274,
      "స్పద": 5275,
      "పెట్టడం": 5276,
      "కృతజ్ఞ": 5277,
      "రాజస్థాన్": 5278,
      "కాంత": 5279,
      "కాగి": 5280,
      "రాష్ట్రానికి": 5281,
      "విలేఖ": 5282,
      "తీర్చు": 5283,
      "టనా": 5284,
      "జిల్": 5285,
      "ప్రతిపాది": 5286,
      "ధర్మాసనం": 5287,
      "అమెరికాలో": 5288,
      "ప్రాజెక్ట్": 5289,
      "ర్యాలీ": 5290,
      "మయ్యే": 5291,
      "సన్నివే": 5292,
      "భేటీ": 5293,
      "జరిగిందని": 5294,
      "నాలుగో": 5295,
      "అప్పట్లో": 5296,
      "రావాలని": 5297,
      "విసు": 5298,
      "ఫ్లా": 5299,
      "పార్టీని": 5300,
      "చుకున్న": 5301,
      "పర్యవే": 5302,
      "2009": 5303,
      "మానే": 5304,
      "రంగంలోకి": 5305,
      "వంతం": 5306,
      "షేక్": 5307,
      "ఫ్యాన్స్": 5308,
      "నిమిత్తం": 5309,
      "అనుభవం": 5310,
      "మాతృ": 5311,
      "పోస్టర్": 5312,
      "సరా": 5313,
      "మొదలైంది": 5314,
      "కమిషనర్": 5315,
      "రమేష్": 5316,
      "తాగు": 5317,
      "వైరస్": 5318,
      "కాండ": 5319,
      "ప్రాంతీయ": 5320,
      "తాలూ": 5321,
      "బదిలీ": 5322,
      "రకంగా": 5323,
      "నాలో": 5324,
      "గించి": 5325,
      "షెడ్యూల్": 5326,
      "ఆకాశ": 5327,
      "గరి": 5328,
      "వ్యవధి": 5329,
      "సాధించి": 5330,
      "అశో": 5331,
      "గోపాల్": 5332,
      "సమస్యలను": 5333,
      "సంస్కృతి": 5334,
      "కంటె": 5335,
      "కాలనీ": 5336,
      "మరణం": 5337,
      "మొదటిసారి": 5338,
      "దగ్గరగా": 5339,
      "బ్రె": 5340,
      "నాలజీ": 5341,
      "ఫ్యామిలీ": 5342,
      "కుటుంబానికి": 5343,
      "సామ్రాజ": 5344,
      "అవుతోంది": 5345,
      "అప్పుడ": 5346,
      "అయ్యాడు": 5347,
      "క్రికె": 5348,
      "హ్మద్": 5349,
      "కాలిక": 5350,
      "రవీ": 5351,
      "పుత్ర": 5352,
      "యూపీ": 5353,
      "ప్రపంచం": 5354,
      "గీత": 5355,
      "జవాబు": 5356,
      "వాగ్": 5357,
      "జైన్": 5358,
      "41": 5359,
      "టైన": 5360,
      "తికే": 5361,
      "వేత": 5362,
      "స్టులు": 5363,
      "క్షీ": 5364,
      "ప్రపంచవ్యాప్తంగా": 5365,
      "అధికారిక": 5366,
      "బడ్డాడు": 5367,
      "ఉందన్నారు": 5368,
      "తుది": 5369,
      "దేశాలకు": 5370,
      "పూట": 5371,
      "సాధన": 5372,
      "ప్రాణం": 5373,
      "హానికి": 5374,
      "శబ్దం": 5375,
      "విల్": 5376,
      "దేవర": 5377,
      "ంటున్నాయి": 5378,
      "త్వంలోని": 5379,
      "విశ్వాసం": 5380,
      "బ్యానర్": 5381,
      "ప్రసిద్ధ": 5382,
      "ంతగా": 5383,
      "స్పృ": 5384,
      "కార్యకర్తలు": 5385,
      "మాట్లాడిన": 5386,
      "సంప్రదాయ": 5387,
      "పటే": 5388,
      "కావచ్చు": 5389,
      "శాయి": 5390,
      "సమయ": 5391,
      "నోట్ల": 5392,
      "నిలిపి": 5393,
      "పరుగె": 5394,
      "హృద": 5395,
      "కోచ్": 5396,
      "అడిగా": 5397,
      "మెంట": 5398,
      "కర్ర": 5399,
      "యువతి": 5400,
      "వెళ్ళాడు": 5401,
      "పోతు": 5402,
      "వారిపై": 5403,
      "కుండానే": 5404,
      "లోగా": 5405,
      "పోయిందని": 5406,
      "హెల్": 5407,
      "అందుకున్న": 5408,
      "త్మకంగా": 5409,
      "మలయా": 5410,
      "ేయ": 5411,
      "ముంది": 5412,
      "ంచుకోవాలి": 5413,
      "దోహ": 5414,
      "శ్రద్ధ": 5415,
      "చూడగానే": 5416,
      "పాలనలో": 5417,
      "యాక్": 5418,
      "తెలుపు": 5419,
      "68": 5420,
      "మేన": 5421,
      "కర్నూలు": 5422,
      "ణికి": 5423,
      "కలెక్టర్": 5424,
      "చేసుకోవచ్చు": 5425,
      "రాష్టప్రతి": 5426,
      "విద్యార్థులకు": 5427,
      "టెక్నాలజీ": 5428,
      "షన్ను": 5429,
      "దేవ్": 5430,
      "పూజలు": 5431,
      "ధైర్యం": 5432,
      "లవ్": 5433,
      "శారీ": 5434,
      "ఎస్ఐ": 5435,
      "దక్షిణాఫ్రికా": 5436,
      "పించాడు": 5437,
      "ఆర్టీసీ": 5438,
      "పద్ధతి": 5439,
      "అమాయ": 5440,
      "వొ": 5441,
      "సిస్": 5442,
      "సాన్ని": 5443,
      "ఉండటంతో": 5444,
      "విద్యార్థుల": 5445,
      "ఇన్స్": 5446,
      "కబు": 5447,
      "తీసుకునే": 5448,
      "ఫైర్": 5449,
      "వృద్ధ": 5450,
      "మొబైల్": 5451,
      "కణ": 5452,
      "ళా": 5453,
      "యేషన్": 5454,
      "జారిటీ": 5455,
      "చేస్తాయి": 5456,
      "మాస్టర్": 5457,
      "వంక": 5458,
      "సామాన్య": 5459,
      "ఇన్నింగ్స్": 5460,
      "ఛే": 5461,
      "పునర్": 5462,
      "ధులను": 5463,
      "నియోజకవర్గా": 5464,
      "మంచం": 5465,
      "సంకే": 5466,
      "ఆయనను": 5467,
      "మునిగి": 5468,
      "శ్రీకాకు": 5469,
      "వాటా": 5470,
      "సీటు": 5471,
      "మూసి": 5472,
      "జమ్మూ": 5473,
      "దక్క": 5474,
      "వత్": 5475,
      "కుర్చీ": 5476,
      "ష్టు": 5477,
      "బాయ్": 5478,
      "వేత్తలు": 5479,
      "బెంగాల్": 5480,
      "పెరిగిన": 5481,
      "మెజారిటీ": 5482,
      "మధ్యప్రదేశ్": 5483,
      "దూసుకు": 5484,
      "ఒక్కసారి": 5485,
      "పొందింది": 5486,
      "చౌదరి": 5487,
      "వుని": 5488,
      "మిమ్మల్ని": 5489,
      "లేడు": 5490,
      "కల్పన": 5491,
      "ఒలిం": 5492,
      "చంద": 5493,
      "భవన్": 5494,
      "రాత్ర": 5495,
      "రోగ": 5496,
      "మర్చి": 5497,
      "వ్యక్తిని": 5498,
      "దేవుడు": 5499,
      "తిన్న": 5500,
      "ార్జున": 5501,
      "పక్కనే": 5502,
      "వ్యవస్థను": 5503,
      "నిరుద్యో": 5504,
      "సక్సెస్": 5505,
      "దిద్దు": 5506,
      "జట్టులో": 5507,
      "మ్యం": 5508,
      "ట్రిక్": 5509,
      "రాబోయే": 5510,
      "కర్మ": 5511,
      "కేంద్రంగా": 5512,
      "సంక్రాంతి": 5513,
      "ఉద్యోగులు": 5514,
      "క్యు": 5515,
      "అభ్యర్థులు": 5516,
      "సప్": 5517,
      "కాపా": 5518,
      "ల్లోని": 5519,
      "ఆనందంగా": 5520,
      "ధక": 5521,
      "మేడ": 5522,
      "గ్రీన్": 5523,
      "యజమాని": 5524,
      "కాబో": 5525,
      "శ్రీకృష్ణ": 5526,
      "జబ్బు": 5527,
      "సస్పె": 5528,
      "దాన": 5529,
      "తీవ్రమైన": 5530,
      "చెలరే": 5531,
      "చలన": 5532,
      "గంటలు": 5533,
      "ఐరో": 5534,
      "సిన్": 5535,
      "తరచు": 5536,
      "కలిగింది": 5537,
      "ఎంట్రీ": 5538,
      "7లో": 5539,
      "ంకు": 5540,
      "తట్టు": 5541,
      "విధాన": 5542,
      "విపక్ష": 5543,
      "తిప్పి": 5544,
      "యాజ": 5545,
      "వ్యవసాయం": 5546,
      "ద్వి": 5547,
      "వృక్ష": 5548,
      "స్కు": 5549,
      "స్క్రీ": 5550,
      "స్వేచ్ఛ": 5551,
      "మంగా": 5552,
      "వేరి": 5553,
      "వేసవి": 5554,
      "ులర్": 5555,
      "అమెరికన్": 5556,
      "సొంతం": 5557,
      "జిల్లాల్లో": 5558,
      "మిల": 5559,
      "అనిల్": 5560,
      "కంపై": 5561,
      "కంప్యూ": 5562,
      "ంశ": 5563,
      "ఎగ": 5564,
      "ఏజె": 5565,
      "మత్తు": 5566,
      "విచిత్ర": 5567,
      "వంసం": 5568,
      "మోస": 5569,
      "మరికొన్ని": 5570,
      "బియ్య": 5571,
      "చక్కగా": 5572,
      "తప": 5573,
      "ఆలోచనలు": 5574,
      "రానున్న": 5575,
      "నియామ": 5576,
      "క్రెయిన్": 5577,
      "చేశాను": 5578,
      "నమ్ము": 5579,
      "స్తుల": 5580,
      "వేణు": 5581,
      "క్రూ": 5582,
      "అనుబంధ": 5583,
      "ప్రకాశం": 5584,
      "ఇంది": 5585,
      "మీది": 5586,
      "రామచంద్ర": 5587,
      "ఉత్తరప్రదేశ్": 5588,
      "విభాగంలో": 5589,
      "కొన్నా": 5590,
      "కొరియా": 5591,
      "తాత": 5592,
      "కారా": 5593,
      "నాణ్య": 5594,
      "5లో": 5595,
      "కావ్య": 5596,
      "పెట్టా": 5597,
      "గుండ": 5598,
      "సర్కార్": 5599,
      "చంపే": 5600,
      "బాంబు": 5601,
      "నరసింహ": 5602,
      "తెలీదు": 5603,
      "ఆకు": 5604,
      "ఆశా": 5605,
      "రులో": 5606,
      "సమాచార": 5607,
      "మంజ": 5608,
      "ప్రాచీ": 5609,
      "బోధి": 5610,
      "త్తుల": 5611,
      "విధానాన్ని": 5612,
      "నామినేషన్": 5613,
      "జడ్": 5614,
      "కేజ": 5615,
      "సాగ": 5616,
      "వన్డే": 5617,
      "మాట్లాడారు": 5618,
      "ప్రణాళిక": 5619,
      "69": 5620,
      "విరుద్ధ": 5621,
      "హాల": 5622,
      "వాన": 5623,
      "పదవీ": 5624,
      "స్ర్తి": 5625,
      "సన్నా": 5626,
      "పూర్లో": 5627,
      "అడుగులు": 5628,
      "హ్ర": 5629,
      "వచ్చిందని": 5630,
      "కవిత": 5631,
      "ఇంట్": 5632,
      "అనుకూలంగా": 5633,
      "వీరికి": 5634,
      "ఉద్దేశి": 5635,
      "బంధి": 5636,
      "స్తున్నట్టు": 5637,
      "చేతుల్లో": 5638,
      "రకమైన": 5639,
      "పటేల్": 5640,
      "రామయ్య": 5641,
      "స్పెషల్": 5642,
      "అరవి": 5643,
      "జపాన్": 5644,
      "త్తే": 5645,
      "వాసన": 5646,
      "ుడి": 5647,
      "నర్జీ": 5648,
      "ఆదు": 5649,
      "తాం": 5650,
      "తేలిక": 5651,
      "విస్తీ": 5652,
      "వాళ్ళకి": 5653,
      "అంతగా": 5654,
      "!!": 5655,
      "తిన్": 5656,
      "కెన": 5657,
      "తీర్చి": 5658,
      "హృదయ": 5659,
      "ంపియన్": 5660,
      "క్షత్ర": 5661,
      "ప్రాంతానికి": 5662,
      "స్వల్ప": 5663,
      "ఆధారపడి": 5664,
      "పండ": 5665,
      "కుడిగా": 5666,
      "ఏమాత్రం": 5667,
      "విగ్ర": 5668,
      "అనుసం": 5669,
      "అంతరి": 5670,
      "నెలకొంది": 5671,
      "150": 5672,
      "వయసులో": 5673,
      "కాంట": 5674,
      "గౌరవి": 5675,
      "భాలు": 5676,
      "లేకపోవడం": 5677,
      "ట్రే": 5678,
      "ఉక్రెయిన్": 5679,
      "ఓటీ": 5680,
      "ాలంటూ": 5681,
      "గుర్ర": 5682,
      "ఆంగ్ల": 5683,
      "కన్ను": 5684,
      "విశాల": 5685,
      "రాలుగా": 5686,
      "ముకు": 5687,
      "ల్లర్": 5688,
      "అందుబాటులోకి": 5689,
      "మాట్లాడి": 5690,
      "నాయక్": 5691,
      "సాంప్రదా": 5692,
      "మిటి": 5693,
      "యుగ": 5694,
      "చేయనున్నారు": 5695,
      "స్వయం": 5696,
      "టిక్కె": 5697,
      "ఎన్నికలకు": 5698,
      "బాలకృష్ణ": 5699,
      "ఐరోపా": 5700,
      "అఫ్": 5701,
      "రాయ్": 5702,
      "జరిపి": 5703,
      "బిజినెస్": 5704,
      "డార్": 5705,
      "తారా": 5706,
      "మేధా": 5707,
      "భర్తీ": 5708,
      "మల్ల": 5709,
      "కల్యాణ్": 5710,
      "ధాన్ని": 5711,
      "మహిళలకు": 5712,
      "అద్భుతంగా": 5713,
      "సిసి": 5714,
      "మించిన": 5715,
      "లక్షణాలు": 5716,
      "వెల": 5717,
      "గురువు": 5718,
      "ఉన్నట్టు": 5719,
      "ఏమిటో": 5720,
      "జయంతి": 5721,
      "ఇంధ": 5722,
      "దృశ్య": 5723,
      "పొందారు": 5724,
      "ధన్": 5725,
      "మంటూ": 5726,
      "రజ": 5727,
      "శత": 5728,
      "కంపెనీలు": 5729,
      "ఉగ్రవాద": 5730,
      "పుట్టు": 5731,
      "జాన": 5732,
      "పడతాయి": 5733,
      "గౌరవం": 5734,
      "ప్రతిపాదన": 5735,
      "స్తోన్న": 5736,
      "విరాట్": 5737,
      "ప్రజాస్వామ్య": 5738,
      "స్థానికులు": 5739,
      "శార": 5740,
      "విజన్": 5741,
      "యూనిట్": 5742,
      "ఇటీవలే": 5743,
      "కార్తీ": 5744,
      "ందాం": 5745,
      "శేఖ": 5746,
      "అందించిన": 5747,
      "గుర్తించి": 5748,
      "పాల్గొన్న": 5749,
      "లెట్": 5750,
      "ఎక్కడి": 5751,
      "కిషన్": 5752,
      "పెడితే": 5753,
      "మమ": 5754,
      "కుంటారు": 5755,
      "ఆయుధ": 5756,
      "చారిత్ర": 5757,
      "పుష్ప": 5758,
      "ఆరోగ్యా": 5759,
      "అంకి": 5760,
      "జరుగుతున్నాయి": 5761,
      "హక్కుల": 5762,
      "జొన్న": 5763,
      "కేజ్రీ": 5764,
      "ప్రయోగి": 5765,
      "శాస్త్రం": 5766,
      "గన్": 5767,
      "కెళ్ళి": 5768,
      "పదిహే": 5769,
      "వస్తాయి": 5770,
      "రిటై": 5771,
      "తీసింది": 5772,
      "పరిష్కారం": 5773,
      "నాశనం": 5774,
      "తరచూ": 5775,
      "సమర్పి": 5776,
      "ల్లోనే": 5777,
      "బీజేపీకి": 5778,
      "అధికారుల": 5779,
      "నమోద": 5780,
      "శ్రీకాకుళం": 5781,
      "ౌండ్": 5782,
      "చేసుకోవాలి": 5783,
      "ఉరి": 5784,
      "ప్రభావ": 5785,
      "77": 5786,
      "ఔష": 5787,
      "కపోవడం": 5788,
      "ఆకలి": 5789,
      "ఇతని": 5790,
      "పర్యావరణ": 5791,
      "స్నానం": 5792,
      "వెయ్యి": 5793,
      "ప్రశ్నలు": 5794,
      "ఓపెన్": 5795,
      "వద్దని": 5796,
      "విక్రయి": 5797,
      "ఫ్లో": 5798,
      "ఫికేషన్": 5799,
      "టైమ్": 5800,
      "పౌరు": 5801,
      "ఇప్పు": 5802,
      "ంగో": 5803,
      "తొందర": 5804,
      "మారిన": 5805,
      "ఏమిట": 5806,
      "కుంభ": 5807,
      "కంటి": 5808,
      "పరిమా": 5809,
      "పెద్దలు": 5810,
      "పింగ్": 5811,
      "తనిఖీ": 5812,
      "చేతుల": 5813,
      "తేల్": 5814,
      "గదిలోకి": 5815,
      "కార్యక్రమానికి": 5816,
      "ఆస్తి": 5817,
      "భయంతో": 5818,
      "వ్యాఖ్యాని": 5819,
      "సంతోషంగా": 5820,
      "కరీం": 5821,
      "స్తున్నాం": 5822,
      "తెలిపాడు": 5823,
      "ఉన్నప్పటికీ": 5824,
      "వెళ్లారు": 5825,
      "విభజి": 5826,
      "టలు": 5827,
      "ద్దని": 5828,
      "ఖమ్మం": 5829,
      "కాపాడ": 5830,
      "నాలుగే": 5831,
      "క్యాన్సర్": 5832,
      "నక్షత్ర": 5833,
      "జినీ": 5834,
      "2022": 5835,
      "ంటామని": 5836,
      "ఇతడు": 5837,
      "అయోధ్య": 5838,
      "సహి": 5839,
      "గ్లో": 5840,
      "ంపజే": 5841,
      "వడం": 5842,
      "వాస్తవ": 5843,
      "ముక్కలు": 5844,
      "కేజ్రీవాల్": 5845,
      "ప్రత్యా": 5846,
      "కొల": 5847,
      "స్తీ": 5848,
      "అధికారులకు": 5849,
      "రాబాద్": 5850,
      "కొబ్బ": 5851,
      "ఆదేశించింది": 5852,
      "లోకేష్": 5853,
      "పోలిస్తే": 5854,
      "అంశాలపై": 5855,
      "మావోయి": 5856,
      "పాయ": 5857,
      "అత్యధి": 5858,
      "నెంబర్": 5859,
      "అసంత": 5860,
      "వివాదం": 5861,
      "ప్రత్యర్థి": 5862,
      "పెను": 5863,
      "మీడియాతో": 5864,
      "ప్రాచీన": 5865,
      "ఢ్": 5866,
      "లుక్": 5867,
      "జుట్టు": 5868,
      "స్థానాన్ని": 5869,
      "కార్యాలయంలో": 5870,
      "నిరూపి": 5871,
      "డాక్టరు": 5872,
      "విజ్ఞప్తి": 5873,
      "సవాల్": 5874,
      "తప్పదు": 5875,
      "దానం": 5876,
      "కల్ప": 5877,
      "క్షణంలో": 5878,
      "విశ్లే": 5879,
      "క్షన్స్": 5880,
      "తీసుకోవాలి": 5881,
      "గారికి": 5882,
      "ఎప్పటికప్పుడు": 5883,
      "పోతాయి": 5884,
      "లైంగి": 5885,
      "సింధ": 5886,
      "ఖరీ": 5887,
      "డ్యా": 5888,
      "లూరు": 5889,
      "వద": 5890,
      "కలం": 5891,
      "టాన్ని": 5892,
      "రావడానికి": 5893,
      "54": 5894,
      "ంచుకోవాలని": 5895,
      "నైట్": 5896,
      "66": 5897,
      "దిక్కు": 5898,
      "పేరి": 5899,
      "పూల": 5900,
      "ఆడపిల్ల": 5901,
      "2001": 5902,
      "అటవీ": 5903,
      "మంజూరు": 5904,
      "వుంటాయి": 5905,
      "ఉద్యమం": 5906,
      "మెరుగ": 5907,
      "దాసు": 5908,
      "తొలిసారి": 5909,
      "సముద్రం": 5910,
      "మల్లి": 5911,
      "చూస్తుంటే": 5912,
      "ఆర్మీ": 5913,
      "జట్టుకు": 5914,
      "జీలు": 5915,
      "ఇంతకు": 5916,
      "రక్ష": 5917,
      "నిస్": 5918,
      "ంత్రా": 5919,
      "మూడవ": 5920,
      "ంచబడుతుంది": 5921,
      "వాడికి": 5922,
      "సమగ్ర": 5923,
      "సంక్షో": 5924,
      "ష్టమైన": 5925,
      "బెడ్": 5926,
      "వస్తువు": 5927,
      "మతులు": 5928,
      "రాముడు": 5929,
      "టుగా": 5930,
      "పోతున్నాయి": 5931,
      "ధోనీ": 5932,
      "ప్స్": 5933,
      "ప్రత్యామ్": 5934,
      "కన్పి": 5935,
      "పురస్కార": 5936,
      "ఇచ్చ": 5937,
      "నట్టు": 5938,
      "దాడికి": 5939,
      "గెలిచిన": 5940,
      "ముంబయి": 5941,
      "తినే": 5942,
      "ప్రసాది": 5943,
      "వికా": 5944,
      "డిస్": 5945,
      "కాలుగా": 5946,
      "వైవి": 5947,
      "ఆలయంలో": 5948,
      "స్వాతంత్య్ర": 5949,
      "అంశాలు": 5950,
      "ందంటే": 5951,
      "భారత్కు": 5952,
      "కుర్రా": 5953,
      "వెలుగులోకి": 5954,
      "సెంట్ర": 5955,
      "కొబ్బరి": 5956,
      "చేరుకున్నారు": 5957,
      "78": 5958,
      "ముక్కు": 5959,
      "దాస్": 5960,
      "చెక్": 5961,
      "భివృద్ధి": 5962,
      "పాలసీ": 5963,
      "సౌందర్": 5964,
      "నాగార్జున": 5965,
      "నడవ": 5966,
      "యుని": 5967,
      "మూలంగా": 5968,
      "నెలలు": 5969,
      "జూనియర్": 5970,
      "పృ": 5971,
      "ఎత్త": 5972,
      "సిద్ధాంత": 5973,
      "లాయి": 5974,
      "భాజపా": 5975,
      "లోయ": 5976,
      "ంచగలి": 5977,
      "అధికారంలో": 5978,
      "అంటు": 5979,
      "మగ్": 5980,
      "అతనిని": 5981,
      "ఉత్సాహ": 5982,
      "నుకు": 5983,
      "కారులో": 5984,
      "పరిస్థితిని": 5985,
      "త్యాన్ని": 5986,
      "మీర": 5987,
      "పేరును": 5988,
      "టీ20": 5989,
      "కర్నాటక": 5990,
      "విర": 5991,
      "త్యు": 5992,
      "మరణించారు": 5993,
      "అంశాలను": 5994,
      "ఏను": 5995,
      "కూర్చున్నాడు": 5996,
      "వేయడం": 5997,
      "వీరిలో": 5998,
      "నమస్": 5999,
      "శూ": 6000,
      "శిల్": 6001,
      "అమరావ": 6002,
      "బౌద్ధ": 6003,
      "సీరియస్": 6004,
      "సత్యం": 6005,
      "గుప్పి": 6006,
      "చేసుకోవడం": 6007,
      "నిశ్చ": 6008,
      "డిప్యూ": 6009,
      "ములకు": 6010,
      "పెట్టె": 6011,
      "భిన్నంగా": 6012,
      "రణి": 6013,
      "పేలు": 6014,
      "సరసన": 6015,
      "డిజిటల్": 6016,
      "మత్": 6017,
      "తనతో": 6018,
      "చేయబో": 6019,
      "అలరి": 6020,
      "అప్పటికి": 6021,
      "దృష్టికి": 6022,
      "న్యూస్": 6023,
      "నిర్ధారి": 6024,
      "సమ్మ": 6025,
      "నవ్వి": 6026,
      "సవరణ": 6027,
      "ల్సి": 6028,
      "చేయగల": 6029,
      "దారులకు": 6030,
      "మామూలు": 6031,
      "అసో": 6032,
      "పల్ల": 6033,
      "ఖండ్": 6034,
      "సరికొత్త": 6035,
      "జారు": 6036,
      "ముప్పు": 6037,
      "పాన్ని": 6038,
      "పంచి": 6039,
      "ప్రథ": 6040,
      "సూచన": 6041,
      "రాష్ట్రాలు": 6042,
      "బారిన": 6043,
      "ఉల్లం": 6044,
      "కశ్మీర్": 6045,
      "తప్పుడు": 6046,
      "కోలేదు": 6047,
      "నాయకుల": 6048,
      "ఫాలో": 6049,
      "చక్రవర్తి": 6050,
      "అదీ": 6051,
      "ఉంటాడు": 6052,
      "త్మిక": 6053,
      "న్యాయవాది": 6054,
      "సంస్కరణ": 6055,
      "భవిష్యత్": 6056,
      "క్టరీ": 6057,
      "అధిగ": 6058,
      "పనిచేస్తున్న": 6059,
      "ఆడిన": 6060,
      "పరాజ": 6061,
      "నంబర్": 6062,
      "ఆర్ఆర్": 6063,
      "బాలయ్య": 6064,
      "ంచబో": 6065,
      "కాకి": 6066,
      "కొట్టుకు": 6067,
      "పాకిస్థాన్": 6068,
      "న్యూజి": 6069,
      "ళ్ళలో": 6070,
      "చేసిందని": 6071,
      "శిఖ": 6072,
      "బీభ": 6073,
      "నిర్మాతలు": 6074,
      "భాషల్లో": 6075,
      "ర్థ": 6076,
      "తోడ్": 6077,
      "పాస్": 6078,
      "లీల": 6079,
      "ప్రాంతాలకు": 6080,
      "పేర్కొన్న": 6081,
      "బహుశా": 6082,
      "ూరి": 6083,
      "విశ్రా": 6084,
      "టీలో": 6085,
      "తరపున": 6086,
      "గౌత": 6087,
      "నిరాశ": 6088,
      "ఆధిప": 6089,
      "గ్రాండ్": 6090,
      "జేబు": 6091,
      "ప్లాస్టిక్": 6092,
      "నిరంతరం": 6093,
      "వచ్చాక": 6094,
      "సుక": 6095,
      "పరిణామ": 6096,
      "సెంట్రల్": 6097,
      "విము": 6098,
      "లిమి": 6099,
      "సమీపంలోని": 6100,
      "ఆలస్య": 6101,
      "స్త్రీల": 6102,
      "తేడాతో": 6103,
      "300": 6104,
      "98": 6105,
      "న్నాయని": 6106,
      "ంటాం": 6107,
      "టారు": 6108,
      "బాని": 6109,
      "డేట్": 6110,
      "కలగ": 6111,
      "య్యింది": 6112,
      "హెచ్చరించారు": 6113,
      "అంతకుముందు": 6114,
      "మామిడి": 6115,
      "టీచర్": 6116,
      "సమాజా": 6117,
      "కౌన్సి": 6118,
      "స్నేహితు": 6119,
      "దుఃఖ": 6120,
      "పడకుండా": 6121,
      "పూర్వం": 6122,
      "శెట్టి": 6123,
      "బదు": 6124,
      "రాశారు": 6125,
      "విషయాల": 6126,
      "కనిపించే": 6127,
      "బయలుదేరి": 6128,
      "నిత్యం": 6129,
      "కూరగాయ": 6130,
      "కరీంనగర్": 6131,
      "ఆశీ": 6132,
      "రాజ్యం": 6133,
      "సాధించాడు": 6134,
      "ఐపీఎల్": 6135,
      "ఓట్ల": 6136,
      "సైన్స్": 6137,
      "సందర్భంలో": 6138,
      "జ్ఞాప": 6139,
      "పొరుగు": 6140,
      "నూరు": 6141,
      "సైడ్": 6142,
      "ఆధ్యా": 6143,
      "భాషలో": 6144,
      "అభివృద్ధికి": 6145,
      "పచ్చి": 6146,
      "పర్వ": 6147,
      "భారత్లో": 6148,
      "యిట్": 6149,
      "పొత్తు": 6150,
      "బ్రేక్": 6151,
      "అండగా": 6152,
      "టిఫి": 6153,
      "సుందర": 6154,
      "ఎంసీ": 6155,
      "పంప": 6156,
      "పడుతోంది": 6157,
      "వెంకయ్య": 6158,
      "అంతరిక్ష": 6159,
      "కండి": 6160,
      "జర్మ": 6161,
      "ముగ్గు": 6162,
      "యాలో": 6163,
      "2024": 6164,
      "మహబూ": 6165,
      "కాంట్రా": 6166,
      "కచ్చితంగా": 6167,
      "నియంత్రి": 6168,
      "దొర": 6169,
      "నిల్వ": 6170,
      "చేరారు": 6171,
      "యుద్ధా": 6172,
      "వార్షి": 6173,
      "ఎన్డీ": 6174,
      "ఐదుగురు": 6175,
      "చిత్రీకరి": 6176,
      "ఫామ్": 6177,
      "ట్విట్టర్": 6178,
      "తుపా": 6179,
      "డేటా": 6180,
      "గ్రి": 6181,
      "నవా": 6182,
      "కొట్టే": 6183,
      "ంతోనే": 6184,
      "ఆనంద్": 6185,
      "పిక్స్": 6186,
      "వెళ్ళిన": 6187,
      "నిషేధి": 6188,
      "కిటికీ": 6189,
      "తెల్లవారు": 6190,
      "సురక్షి": 6191,
      "లాభం": 6192,
      "గొట్టి": 6193,
      "అర్హత": 6194,
      "కెనడా": 6195,
      "చక": 6196,
      "వేశాడు": 6197,
      "సేవి": 6198,
      "రూపు": 6199,
      "అంబే": 6200,
      "బిజీగా": 6201,
      "న్యూజిలాండ్": 6202,
      "హయా": 6203,
      "సారా": 6204,
      "న్యాయస్థానం": 6205,
      "న్యాయమూర్": 6206,
      "నిప్పు": 6207,
      "ప్రఖ్యా": 6208,
      "నాది": 6209,
      "శుద్ధి": 6210,
      "గఢ్": 6211,
      "ధ్రు": 6212,
      "నించి": 6213,
      "వెల్లు": 6214,
      "పరస్ప": 6215,
      "పోయాను": 6216,
      "ందరో": 6217,
      "వంశ": 6218,
      "వీర్": 6219,
      "స్కా": 6220,
      "దివ్య": 6221,
      "కూర్చున్న": 6222,
      "ప్రతినిధులు": 6223,
      "పాలనా": 6224,
      "అమ్ము": 6225,
      "51": 6226,
      "విగా": 6227,
      "పాపం": 6228,
      "అనుభవ": 6229,
      "రవితేజ": 6230,
      "తిరుగుబాటు": 6231,
      "పురాణ": 6232,
      "భౌతిక": 6233,
      "చారిత్రక": 6234,
      "మరే": 6235,
      "రోజ": 6236,
      "శరీరంలో": 6237,
      "బంతులు": 6238,
      "గురైన": 6239,
      "బాణ": 6240,
      "ప్రాతి": 6241,
      "అనుమాన": 6242,
      "దీనితో": 6243,
      "కైక": 6244,
      "విరుచుకు": 6245,
      "ధూ": 6246,
      "విగ్రహం": 6247,
      "పేరిట": 6248,
      "చేయాల్సి": 6249,
      "ఘటనపై": 6250,
      "వారా": 6251,
      "ాన": 6252,
      "పొగ": 6253,
      "సమావేశాలు": 6254,
      "మీటర్లు": 6255,
      "డిప్యూటీ": 6256,
      "ఇచ్చా": 6257,
      "మింగ్": 6258,
      "మెట్రో": 6259,
      "52": 6260,
      "సుంద": 6261,
      "మెల్ల": 6262,
      "సీతా": 6263,
      "దారుణంగా": 6264,
      "శ్వాస": 6265,
      "రాజీవ్": 6266,
      "మాయా": 6267,
      "సంతృప్తి": 6268,
      "మొట్టమొదటి": 6269,
      "విది": 6270,
      "ప్ట్": 6271,
      "మేఘ": 6272,
      "దగ్గి": 6273,
      "వడ": 6274,
      "కామెంట్స్": 6275,
      "పిడి": 6276,
      "లేం": 6277,
      "బయల్": 6278,
      "భారం": 6279,
      "హడా": 6280,
      "రాజకీయాలు": 6281,
      "ప్రారంభించింది": 6282,
      "తెరకెక్కు": 6283,
      "పదవికి": 6284,
      "ఆదేశించారు": 6285,
      "హాజరయ్యారు": 6286,
      "ముఖా": 6287,
      "ప్రశాంత్": 6288,
      "ఇంట": 6289,
      "తాళ": 6290,
      "వ్యాసాలు": 6291,
      "సరదా": 6292,
      "బరిలోకి": 6293,
      "ఉచిత": 6294,
      "ప్రొఫెసర్": 6295,
      "కాయి": 6296,
      "చేశామని": 6297,
      "వాళ్ళని": 6298,
      "గవ": 6299,
      "పగ": 6300,
      "ర్స్": 6301,
      "గోళ": 6302,
      "ప్రారంభించిన": 6303,
      "ప్రెసి": 6304,
      "క్రైస్త": 6305,
      "ఏళ్లు": 6306,
      "కక్ష": 6307,
      "తున్నట్టు": 6308,
      "చిన్నారి": 6309,
      "బైక్": 6310,
      "ల్చుకు": 6311,
      "్యానికి": 6312,
      "పరిగె": 6313,
      "మార్గంలో": 6314,
      "53": 6315,
      "కరా": 6316,
      "విదేశా": 6317,
      "పెం": 6318,
      "పనిలో": 6319,
      "పలుకు": 6320,
      "తెలుసుకున్న": 6321,
      "ఎన్ను": 6322,
      "నార": 6323,
      "ంచమని": 6324,
      "పారే": 6325,
      "ఆశ్చర్": 6326,
      "భ్రా": 6327,
      "నిధి": 6328,
      "చేయండి": 6329,
      "భాస్": 6330,
      "అరవింద్": 6331,
      "ఫార": 6332,
      "ములలో": 6333,
      "జులు": 6334,
      "స్టేషను": 6335,
      "మయ్యాయి": 6336,
      "వివరణ": 6337,
      "పిల్లలను": 6338,
      "బ్యాట్స్": 6339,
      "రెండూ": 6340,
      "మార్కెట్లో": 6341,
      "నియోజకవర్గంలో": 6342,
      "కేం": 6343,
      "యువకుడు": 6344,
      "అసి": 6345,
      "తులలో": 6346,
      "చేయవచ్చు": 6347,
      "మృత్యు": 6348,
      "రామారావు": 6349,
      "అధికారికంగా": 6350,
      "పరిష్కార": 6351,
      "పతాకంపై": 6352,
      "థ్రి": 6353,
      "చేందుకు": 6354,
      "కొందరి": 6355,
      "ఆరుగు": 6356,
      "తమవు": 6357,
      "ద్వార": 6358,
      "ఇంజనీరింగ్": 6359,
      "కోర్టుకు": 6360,
      "నున్నాయి": 6361,
      "ాలన్నీ": 6362,
      "ముచ్చ": 6363,
      "ఇట": 6364,
      "ఘర్షణ": 6365,
      "మురు": 6366,
      "దాయ": 6367,
      "పుస్తకాలు": 6368,
      "ఒంటరిగా": 6369,
      "ప్రాంతాలు": 6370,
      "అవుతుందని": 6371,
      "విదేశాంగ": 6372,
      "చేస్త": 6373,
      "ఖాత": 6374,
      "విషయాలను": 6375,
      "పుస్తకం": 6376,
      "స్థానాల్లో": 6377,
      "నిరోధక": 6378,
      "విభాగం": 6379,
      "పురి": 6380,
      "పరీక్షి": 6381,
      "చేరుకుని": 6382,
      "ంబి": 6383,
      "సేవల": 6384,
      "తలుపులు": 6385,
      "అడిగి": 6386,
      "ఎక్కడో": 6387,
      "చేతికి": 6388,
      "వుంటారు": 6389,
      "పోల": 6390,
      "టర్ల": 6391,
      "మొదట్లో": 6392,
      "నదీ": 6393,
      "కోవిడ్": 6394,
      "పిల్": 6395,
      "ళ్ళో": 6396,
      "ంచుకుంటూ": 6397,
      "బడ్డారు": 6398,
      "ఆఫ్రికా": 6399,
      "మస": 6400,
      "విశ్వవిద్యాలయం": 6401,
      "సైన్": 6402,
      "డాడు": 6403,
      "సానికి": 6404,
      "సాఫీ": 6405,
      "సాగాడు": 6406,
      "స్తాయని": 6407,
      "గెట్": 6408,
      "అప్రమత్త": 6409,
      "తరచుగా": 6410,
      "ంజు": 6411,
      "రిటీ": 6412,
      "ఉండవచ్చు": 6413,
      "మంత్రిగా": 6414,
      "మయ్యారు": 6415,
      "జరిగితే": 6416,
      "లేకపోవడంతో": 6417,
      "క్కిరి": 6418,
      "మనోహర్": 6419,
      "పెరిగే": 6420,
      "గతే": 6421,
      "కామ": 6422,
      "వుల్లో": 6423,
      "లేను": 6424,
      "పనిచేశారు": 6425,
      "వహించిన": 6426,
      "ఉత్తరం": 6427,
      "ప్రాతిపది": 6428,
      "కత": 6429,
      "విటమి": 6430,
      "కథను": 6431,
      "సింహా": 6432,
      "తరి": 6433,
      "పూజి": 6434,
      "పొల": 6435,
      "పాల్పడిన": 6436,
      "హోట": 6437,
      "ఇపుడు": 6438,
      "ఉంచి": 6439,
      "గాయాల": 6440,
      "గుల్": 6441,
      "తానని": 6442,
      "అనుమాని": 6443,
      "బోధ": 6444,
      "గబ": 6445,
      "బయటి": 6446,
      "భూమిని": 6447,
      "యింగ్": 6448,
      "హాని": 6449,
      "అభినంది": 6450,
      "విచారణకు": 6451,
      "ఆసుపత్రిలో": 6452,
      "విమానం": 6453,
      "తుందా": 6454,
      "ప్రాంగ": 6455,
      "మొదలె": 6456,
      "పదం": 6457,
      "శీల": 6458,
      "అడగ": 6459,
      "ప్రియాంక": 6460,
      "సత్తా": 6461,
      "మామ": 6462,
      "రాబో": 6463,
      "లేవని": 6464,
      "కలిగే": 6465,
      "ముఖ్యం": 6466,
      "రుద్ర": 6467,
      "ధోరణి": 6468,
      "మటి": 6469,
      "మొన్న": 6470,
      "మార్చు": 6471,
      "సార్వ": 6472,
      "ఉపయోగిస్తారు": 6473,
      "సామాన్": 6474,
      "బట్టలు": 6475,
      "అద్దె": 6476,
      "విజయనగరం": 6477,
      "జర్మనీ": 6478,
      "చర": 6479,
      "చేస్తాడు": 6480,
      "ులుగా": 6481,
      "సభ్యుడు": 6482,
      "ెర": 6483,
      "పోవడానికి": 6484,
      "నిర్ణయాలు": 6485,
      "ఏటా": 6486,
      "మసీ": 6487,
      "వస్త్ర": 6488,
      "జాగ్రత్తలు": 6489,
      "అణ": 6490,
      "యత": 6491,
      "వెన్నె": 6492,
      "వాలా": 6493,
      "మూరి": 6494,
      "నడిపి": 6495,
      "ఈవెంట్": 6496,
      "ఇస్తే": 6497,
      "పరో": 6498,
      "సరు": 6499,
      "విరి": 6500,
      "హాయిగా": 6501,
      "కెమెరా": 6502,
      "ఫిల్మ్": 6503,
      "దార": 6504,
      "ట్టా": 6505,
      "మరిచి": 6506,
      "త్సవాలు": 6507,
      "అలానే": 6508,
      "నిర్మాణానికి": 6509,
      "అనంతపురం": 6510,
      "లండ": 6511,
      "సంద": 6512,
      "ార్ధ": 6513,
      "సంభాష": 6514,
      "డానికే": 6515,
      "క్కర్": 6516,
      "నెటి": 6517,
      "భక్తుల": 6518,
      "రూపొందించిన": 6519,
      "తేలింది": 6520,
      "పిలుపునిచ్చారు": 6521,
      "లైంగిక": 6522,
      "చేరుకున్న": 6523,
      "బాహు": 6524,
      "స్థలానికి": 6525,
      "చరు": 6526,
      "గోవి": 6527,
      "క్లారిటీ": 6528,
      "మగు": 6529,
      "కొచ్చింది": 6530,
      "గ్రామ్": 6531,
      "వైఖరి": 6532,
      "విశ్రాంతి": 6533,
      "రకం": 6534,
      "న్నో": 6535,
      "సుడు": 6536,
      "వేచి": 6537,
      "పౌర": 6538,
      "అంచనాలు": 6539,
      "నిజమైన": 6540,
      "అనూహ్య": 6541,
      "ప్రణ": 6542,
      "వాళ్ళి": 6543,
      "బెయిల్": 6544,
      "లభిస్తుంది": 6545,
      "సదస్సు": 6546,
      "దిగారు": 6547,
      "ప్రాతిని": 6548,
      "గెలవ": 6549,
      "ప్రారంభమైంది": 6550,
      "ఆకాం": 6551,
      "నిండా": 6552,
      "దివ్యా": 6553,
      "స్వంత": 6554,
      "చెందింది": 6555,
      "హఠా": 6556,
      "చేసినట్టు": 6557,
      "వ్యవహ": 6558,
      "వ్యక్తుల": 6559,
      "బౌలింగ్లో": 6560,
      "శతాబ్దం": 6561,
      "గాడి": 6562,
      "గుట్ట": 6563,
      "సమాచారాన్ని": 6564,
      "లేకపోయింది": 6565,
      "ఎప్పుడో": 6566,
      "పాక్షి": 6567,
      "సాహం": 6568,
      "లేకపోయినా": 6569,
      "వస్తూ": 6570,
      "ర్గా": 6571,
      "చేసుకుంటూ": 6572,
      "సరస్వ": 6573,
      "సమస్యల": 6574,
      "79": 6575,
      "అటూ": 6576,
      "ఇంద్రా": 6577,
      "ఘ్": 6578,
      "ేష్": 6579,
      "స్మి": 6580,
      "న్నాం": 6581,
      "సర్దు": 6582,
      "ఏర్పడి": 6583,
      "అందరినీ": 6584,
      "పరిమితం": 6585,
      "ంజనే": 6586,
      "అడ్డం": 6587,
      "ఆరంభ": 6588,
      "శవ": 6589,
      "సేవా": 6590,
      "దళిత": 6591,
      "ఇళ్ల": 6592,
      "సతీ": 6593,
      "సెర్": 6594,
      "లక్ష్యాన్ని": 6595,
      "డ్రగ్స్": 6596,
      "గడువు": 6597,
      "రసాయన": 6598,
      "కానిస్టే": 6599,
      "అరగంట": 6600,
      "88": 6601,
      "పూజా": 6602,
      "అధికారులను": 6603,
      "స్పృహ": 6604,
      "ఉంటూ": 6605,
      "దన్న": 6606,
      "పదు": 6607,
      "మయ": 6608,
      "తిరుమల": 6609,
      "కించి": 6610,
      "ఉద్రి": 6611,
      "కార్యక్రమాన్ని": 6612,
      "అమె": 6613,
      "ఎడి": 6614,
      "గాలని": 6615,
      "తెలుసా": 6616,
      "ఇంగ్లీషు": 6617,
      "హాస్పిటల్": 6618,
      "దిగ్": 6619,
      "సొమ్ము": 6620,
      "దృశ్యం": 6621,
      "ఆదర్శ": 6622,
      "ఎల్ల": 6623,
      "గురై": 6624,
      "చెపు": 6625,
      "జాయి": 6626,
      "కేసును": 6627,
      "మలి": 6628,
      "క్షు": 6629,
      "మినహాయి": 6630,
      "విజే": 6631,
      "కాలుష": 6632,
      "యుద్ధంలో": 6633,
      "ప్య": 6634,
      "మాండ": 6635,
      "వేలాది": 6636,
      "మార్ట్": 6637,
      "పొందే": 6638,
      "ఆఫీసర్": 6639,
      "ఆధ్యాత్మిక": 6640,
      "మయి": 6641,
      "సుదీర్ఘ": 6642,
      "రెన్స్": 6643,
      "త్తిన": 6644,
      "బియ్యం": 6645,
      "వేంద్ర": 6646,
      "హెడ్": 6647,
      "బలవంతంగా": 6648,
      "చేరుకుంది": 6649,
      "గుర్తుకు": 6650,
      "మరె": 6651,
      "మయింది": 6652,
      "వసంత": 6653,
      "స్వర": 6654,
      "నెహ్ర": 6655,
      "మందులు": 6656,
      "తలో": 6657,
      "తద్వారా": 6658,
      "కావలసిన": 6659,
      "కరించింది": 6660,
      "పాత్రను": 6661,
      "పూర్వకంగా": 6662,
      "లబ్ధి": 6663,
      "విస్తీర్": 6664,
      "లారీ": 6665,
      "ళ్లే": 6666,
      "దేవీ": 6667,
      "రెడ్": 6668,
      "డండి": 6669,
      "స్ట్రి": 6670,
      "తీస్": 6671,
      "పడడం": 6672,
      "అధ్యా": 6673,
      "వేట": 6674,
      "ంటున్నాను": 6675,
      "సమన్": 6676,
      "నెలల్లో": 6677,
      "నిముష": 6678,
      "ఎము": 6679,
      "యాన": 6680,
      "పనిచేసిన": 6681,
      "క్కిన": 6682,
      "అద్భుత": 6683,
      "భగవంతు": 6684,
      "నెహ్రూ": 6685,
      "ఘటనలో": 6686,
      "సరించి": 6687,
      "వెళ్ళింది": 6688,
      "బయల్దే": 6689,
      "కమ్మ": 6690,
      "విగ్రహ": 6691,
      "శిబి": 6692,
      "ంపల్లి": 6693,
      "కనీస": 6694,
      "సంభాషణ": 6695,
      "మరా": 6696,
      "నాతో": 6697,
      "ందుకే": 6698,
      "సెక్ర": 6699,
      "డ్రో": 6700,
      "అడిగిన": 6701,
      "మోహన": 6702,
      "ఫ్రీ": 6703,
      "చెప్పవచ్చు": 6704,
      "ఆలస్యం": 6705,
      "గడప": 6706,
      "వరీ": 6707,
      "నిర్దేశి": 6708,
      "పొడవు": 6709,
      "నిజమే": 6710,
      "పెట్టుకున్న": 6711,
      "ప్రోత్": 6712,
      "మ్యూజిక్": 6713,
      "గానూ": 6714,
      "పోకుండా": 6715,
      "వేంక": 6716,
      "రేడియో": 6717,
      "ులైన": 6718,
      "అత్యవసర": 6719,
      "అయ్యా": 6720,
      "ైతే": 6721,
      "సకల": 6722,
      "లోతు": 6723,
      "కుమారి": 6724,
      "పట్టా": 6725,
      "ఒక్కరి": 6726,
      "పేర్కొన్నాడు": 6727,
      "చెందారు": 6728,
      "ఆమోదం": 6729,
      "సన్నాహాలు": 6730,
      "ఊర": 6731,
      "కొలు": 6732,
      "చున్న": 6733,
      "బిలియన్": 6734,
      "వాహనం": 6735,
      "డన్న": 6736,
      "తీసుకుంటే": 6737,
      "ప్రశ్నకు": 6738,
      "కాకపోతే": 6739,
      "స్పందించారు": 6740,
      "వుండేది": 6741,
      "బుద్ధ": 6742,
      "బిగ్": 6743,
      "రాతి": 6744,
      "చెక్క": 6745,
      "సెక్షన్": 6746,
      "ఉండేవి": 6747,
      "టార్గెట్": 6748,
      "కమల్": 6749,
      "ప్రభావితం": 6750,
      "ఏకైక": 6751,
      "డింది": 6752,
      "రామాయ": 6753,
      "చుక్క": 6754,
      "పరిష": 6755,
      "క్రమణ": 6756,
      "2004": 6757,
      "మెరుగైన": 6758,
      "ఉందా": 6759,
      "నివారి": 6760,
      "ఒక్కటే": 6761,
      "సంఘాలు": 6762,
      "ఎద్": 6763,
      "టల": 6764,
      "ులతో": 6765,
      "విడిగా": 6766,
      "పెరుగుతుంది": 6767,
      "సంతరి": 6768,
      "పునరా": 6769,
      "చేయాల్సిన": 6770,
      "అన్నం": 6771,
      "కారణాలు": 6772,
      "ప్రాక్": 6773,
      "విషయమై": 6774,
      "ఉంటాయని": 6775,
      "మెంటరీ": 6776,
      "ఉండడంతో": 6777,
      "ాల్లోకి": 6778,
      "ప్రేక్షకులు": 6779,
      "మున్సిపల్": 6780,
      "గతేడాది": 6781,
      "రావటం": 6782,
      "వ్రే": 6783,
      "జోడి": 6784,
      "జర్స్": 6785,
      "చేస్తుందని": 6786,
      "గ్యాస్": 6787,
      "పునరుద్ధ": 6788,
      "ఉద్యోగుల": 6789,
      "ఇను": 6790,
      "విప్": 6791,
      "చెడు": 6792,
      "రెండి": 6793,
      "అంశాన్ని": 6794,
      "మొత్తంలో": 6795,
      "బ్యూటీ": 6796,
      "మేళ": 6797,
      "జనతా": 6798,
      "దోపి": 6799,
      "స్కూలు": 6800,
      "ఒప్పంద": 6801,
      "ఐసీసీ": 6802,
      "యంగ్": 6803,
      "వదులు": 6804,
      "కుంటున్నారు": 6805,
      "కాశీ": 6806,
      "యుడి": 6807,
      "జ్జ": 6808,
      "వేగంతో": 6809,
      "గెలిచి": 6810,
      "చడం": 6811,
      "తెచ్చు": 6812,
      "ఆమెని": 6813,
      "సభకు": 6814,
      "నడుపు": 6815,
      "జరీ": 6816,
      "ైంది": 6817,
      "గుహ": 6818,
      "బాగానే": 6819,
      "శ్చా": 6820,
      "యోగా": 6821,
      "కంప్యూటర్": 6822,
      "కాడు": 6823,
      "చిహ్": 6824,
      "పోసి": 6825,
      "తనపై": 6826,
      "ప్రపంచకప్": 6827,
      "వైద్యం": 6828,
      "ముగిసిన": 6829,
      "మలయాళ": 6830,
      "ఆక్సి": 6831,
      "సిల్": 6832,
      "ముద్ద": 6833,
      "పొలి": 6834,
      "కార్లు": 6835,
      "ేశ్వర": 6836,
      "వారస": 6837,
      "కపూర్": 6838,
      "యాలకు": 6839,
      "భామ": 6840,
      "సెక్యూ": 6841,
      "గెలుపు": 6842,
      "సహకారం": 6843,
      "ధికారి": 6844,
      "ారంటూ": 6845,
      "దురా": 6846,
      "గేటు": 6847,
      "2010": 6848,
      "కోర్సు": 6849,
      "కష్టాలు": 6850,
      "ద్దీన్": 6851,
      "అనారోగ్య": 6852,
      "ఉనికి": 6853,
      "ందంటూ": 6854,
      "సంహరి": 6855,
      "యడం": 6856,
      "జాబితా": 6857,
      "మరణించిన": 6858,
      "దేవాలయం": 6859,
      "భద్రా": 6860,
      "లావా": 6861,
      "కొట్టు": 6862,
      "బావ": 6863,
      "జీల": 6864,
      "మహర్షి": 6865,
      "బదులు": 6866,
      "గ్రౌండ్": 6867,
      "భూకం": 6868,
      "చోటుచేసుకుంది": 6869,
      "ఒంటి": 6870,
      "కుమార": 6871,
      "సాఫ్ట్": 6872,
      "పీసీసీ": 6873,
      "రాజమండ": 6874,
      "మహాత్": 6875,
      "అదనంగా": 6876,
      "సంరక్షణ": 6877,
      "బీమా": 6878,
      "సాధించారు": 6879,
      "సర్వీసు": 6880,
      "అన్యాయం": 6881,
      "నంత": 6882,
      "ొచ్చ": 6883,
      "ంచాలన్న": 6884,
      "గుంట": 6885,
      "పరిరక్షణ": 6886,
      "విధమైన": 6887,
      "నైపుణ": 6888,
      "ప్రకటనలో": 6889,
      "సైనికులు": 6890,
      "నవీన్": 6891,
      "ఖరారు": 6892,
      "నాడ": 6893,
      "ముతో": 6894,
      "రేంజ్": 6895,
      "తరబడి": 6896,
      "వుండాలి": 6897,
      "టూరి": 6898,
      "సంస్కృత": 6899,
      "ఇంద్రుడు": 6900,
      "పాజిటివ్": 6901,
      "64": 6902,
      "ాలయం": 6903,
      "వామ": 6904,
      "పరమ": 6905,
      "రవీంద్ర": 6906,
      "పడిపోయింది": 6907,
      "నకిలీ": 6908,
      "ఏంటి": 6909,
      "చవి": 6910,
      "లిన్": 6911,
      "పోగా": 6912,
      "వివాదా": 6913,
      "విభే": 6914,
      "భవిష్యత్తులో": 6915,
      "అనా": 6916,
      "జమ": 6917,
      "రాగా": 6918,
      "వేగం": 6919,
      "క్కీ": 6920,
      "చేయబడింది": 6921,
      "పాలక": 6922,
      "సమస్యను": 6923,
      "ధ్వజ": 6924,
      "89": 6925,
      "మాటల": 6926,
      "పాత్రల్లో": 6927,
      "చిన్నారు": 6928,
      "63": 6929,
      "అడు": 6930,
      "పడుతుందని": 6931,
      "అరుణ": 6932,
      "సంచలనం": 6933,
      "అత్యధికంగా": 6934,
      "కొంది": 6935,
      "యునై": 6936,
      "ప్రసంగి": 6937,
      "నన్నారు": 6938,
      "యన్న": 6939,
      "యట్": 6940,
      "లికా": 6941,
      "యాన్": 6942,
      "2000": 6943,
      "సూయ": 6944,
      "పద్ధతిలో": 6945,
      "ఇక్కడే": 6946,
      "హయాంలో": 6947,
      "టిగా": 6948,
      "ఎంకే": 6949,
      "విషయంపై": 6950,
      "కౌంట్": 6951,
      "బంతుల్లో": 6952,
      "ఫోర్స్": 6953,
      "పాటుగా": 6954,
      "పట్టణం": 6955,
      "అజయ్": 6956,
      "తుని": 6957,
      "కూర్చుంది": 6958,
      "మౌళి": 6959,
      "ఫ్రాన్స్": 6960,
      "లలిత": 6961,
      "ఘనంగా": 6962,
      "నిఘా": 6963,
      "మున్న": 6964,
      "ముప్ప": 6965,
      "పెంపు": 6966,
      "పరిపాలన": 6967,
      "సూక్ష్": 6968,
      "డైలా": 6969,
      "ప్రాధాన్యం": 6970,
      "400": 6971,
      "జీర్": 6972,
      "కలవ": 6973,
      "వెళ్ళిపోయాడు": 6974,
      "ఒకేసారి": 6975,
      "భవనం": 6976,
      "శతాబ్దంలో": 6977,
      "అనుసంధా": 6978,
      "రాజమండ్రి": 6979,
      "వంగ": 6980,
      "చేర్చు": 6981,
      "తాగి": 6982,
      "ంటున్నారని": 6983,
      "ఎదుర్కొని": 6984,
      "కంగారు": 6985,
      "కుదు": 6986,
      "రాము": 6987,
      "నిర్ణయాన్ని": 6988,
      "చేసుకోవాలని": 6989,
      "మనుషులు": 6990,
      "కళ్ల": 6991,
      "సమక్ష": 6992,
      "యూరో": 6993,
      "భాగ్య": 6994,
      "ప్రేక్షకులను": 6995,
      "అశ్వ": 6996,
      "కొడ": 6997,
      "నిజాయి": 6998,
      "తాలి": 6999,
      "భార్యా": 7000,
      "పట్టే": 7001,
      "ంచాం": 7002,
      "పక్కల": 7003,
      "యింటి": 7004,
      "కాసేపు": 7005,
      "లాస": 7006,
      "వేస్తూ": 7007,
      "నీటిలో": 7008,
      "సంఘటనలు": 7009,
      "జైన": 7010,
      "తెలిపిన": 7011,
      "నటించింది": 7012,
      "రూపాయి": 7013,
      "నమ్మక": 7014,
      "అరుణ్": 7015,
      "భరత్": 7016,
      "తుఫా": 7017,
      "సిగ": 7018,
      "వెన్యూ": 7019,
      "శాతానికి": 7020,
      "వార్డు": 7021,
      "ఎంపీలు": 7022,
      "కృతజ్ఞతలు": 7023,
      "ంఛ": 7024,
      "గంధ": 7025,
      "కోట్లకు": 7026,
      "దుల్": 7027,
      "యాని": 7028,
      "గోడు": 7029,
      "స్థానానికి": 7030,
      "దీనివల్ల": 7031,
      "ప్రవేశం": 7032,
      "చొర": 7033,
      "నోటిఫికేషన్": 7034,
      "ఆరోపి": 7035,
      "అన్నింటి": 7036,
      "తీసుకెళ్ల": 7037,
      "ఎడమ": 7038,
      "దను": 7039,
      "బయో": 7040,
      "స్టల్": 7041,
      "చెప్పాలని": 7042,
      "సూచనలు": 7043,
      "పరిస్థితుల": 7044,
      "దారుణ": 7045,
      "స్క్రీన్": 7046,
      "సుధా": 7047,
      "పడుతున్నాయి": 7048,
      "నిమిషాలు": 7049,
      "ఆహ్వా": 7050,
      "దోపిడీ": 7051,
      "జను": 7052,
      "త్యాల": 7053,
      "మరింతగా": 7054,
      "స్టోరీ": 7055,
      "అదృష్ట": 7056,
      "వాదులు": 7057,
      "స్థానాలు": 7058,
      "పరిధిలోని": 7059,
      "పరోక్ష": 7060,
      "మలా": 7061,
      "ంచబడ": 7062,
      "యాంటీ": 7063,
      "ధ్వంసం": 7064,
      "క్రెడి": 7065,
      "నమూ": 7066,
      "గాఢ": 7067,
      "విత్": 7068,
      "మాణి": 7069,
      "లిపి": 7070,
      "ఆర్డర్": 7071,
      "సౌత్": 7072,
      "పెరుగుతున్న": 7073,
      "పద్య": 7074,
      "సదరు": 7075,
      "పోతా": 7076,
      "పీఠ": 7077,
      "ఉన్నతా": 7078,
      "జోక్యం": 7079,
      "చేస్తానని": 7080,
      "ప్రత్యామ్నాయ": 7081,
      "నిమ్మ": 7082,
      "పాతం": 7083,
      "నెట్టి": 7084,
      "మరచి": 7085,
      "వుండగా": 7086,
      "పట్టుకొని": 7087,
      "క్వి": 7088,
      "సెక": 7089,
      "భూష": 7090,
      "పథకాలు": 7091,
      "ప్రవర్తన": 7092,
      "ఉత్సవ": 7093,
      "జర్నలి": 7094,
      "నివాసం": 7095,
      "ంచబడ్డాయి": 7096,
      "గుడు": 7097,
      "మీదే": 7098,
      "ఆర్ధిక": 7099,
      "పొట్టి": 7100,
      "ఆధారాలు": 7101,
      "స్టెంట్": 7102,
      "నోటీసులు": 7103,
      "శివా": 7104,
      "శుభా": 7105,
      "పాఠశాలలో": 7106,
      "జిల్లాల": 7107,
      "మొత్తానికి": 7108,
      "ఏళ్ళ": 7109,
      "బట్టే": 7110,
      "ఫిలిం": 7111,
      "పథకాల": 7112,
      "జరప": 7113,
      "జన్మించారు": 7114,
      "కమ్యూనిస్టు": 7115,
      "కార్పొరేషన్": 7116,
      "గడ్": 7117,
      "మట్ట": 7118,
      "వనే్": 7119,
      "న్ల": 7120,
      "రుజు": 7121,
      "బెనర్జీ": 7122,
      "ఇంక": 7123,
      "మెరుపు": 7124,
      "హరీష్": 7125,
      "చూశారు": 7126,
      "దేశాలను": 7127,
      "మరికొందరు": 7128,
      "కనబడు": 7129,
      "కాల్పులు": 7130,
      "నిందితుడు": 7131,
      "చనిపోయిన": 7132,
      "పార్క్": 7133,
      "ప్రార్థ": 7134,
      "బినెట్": 7135,
      "రాష్ట్రాలకు": 7136,
      "వారంతా": 7137,
      "వార్తా": 7138,
      "భావించి": 7139,
      "యువకులు": 7140,
      "రాయల": 7141,
      "అశోక్": 7142,
      "ఉద్రిక్త": 7143,
      "ద్కర్": 7144,
      "సర్కారు": 7145,
      "ముందస్తు": 7146,
      "గింజ": 7147,
      "పెంచి": 7148,
      "ట్రాన్స్": 7149,
      "వనే్డ": 7150,
      "తత్": 7151,
      "స్నేహ": 7152,
      "ఫోటోలు": 7153,
      "యునైటెడ్": 7154,
      "ల్యూ": 7155,
      "కుల్": 7156,
      "టీస్": 7157,
      "నిజాం": 7158,
      "సామర్థ్యం": 7159,
      "నిజాయితీ": 7160,
      "కరిగి": 7161,
      "కపోయినా": 7162,
      "ంచనున్న": 7163,
      "క్షమా": 7164,
      "మెప్పి": 7165,
      "వీళ్ళ": 7166,
      "టేబుల్": 7167,
      "పట్టింది": 7168,
      "విధానంలో": 7169,
      "జన్మించాడు": 7170,
      "కట్టిన": 7171,
      "దేశంగా": 7172,
      "త్తమ": 7173,
      "శేష": 7174,
      "సేవలను": 7175,
      "సన్నిహి": 7176,
      "ఘోర": 7177,
      "లెక్కి": 7178,
      "రాదని": 7179,
      "సేన్": 7180,
      "త్రిక": 7181,
      "కావాల్సిన": 7182,
      "సాంఘి": 7183,
      "పెట్టుకొని": 7184,
      "తినడం": 7185,
      "ఘనత": 7186,
      "రాజేంద్ర": 7187,
      "సంయుక్త": 7188,
      "వాట్": 7189,
      "పైనా": 7190,
      "చూస్తున్నాడు": 7191,
      "ప్రాంతాన్ని": 7192,
      "గాయపడిన": 7193,
      "ఓపెనర్": 7194,
      "లౌ": 7195,
      "ాలీ": 7196,
      "చూప": 7197,
      "గురవు": 7198,
      "మామూలుగా": 7199,
      "ఆహ": 7200,
      "తక్షణ": 7201,
      "యందు": 7202,
      "కూల్": 7203,
      "కళ్లు": 7204,
      "తలను": 7205,
      "ంచలేదని": 7206,
      "వచ్చినప్పుడు": 7207,
      "లేదంటే": 7208,
      "నిబంధనలు": 7209,
      "బీహార్": 7210,
      "చూడాలని": 7211,
      "వంతె": 7212,
      "దాదాపుగా": 7213,
      "సుబ్బారావు": 7214,
      "ఇసుక": 7215,
      "ఉభయ": 7216,
      "పోతారు": 7217,
      "కీల": 7218,
      "ప్రతిష్": 7219,
      "షియన్": 7220,
      "పంపు": 7221,
      "సమావేశానికి": 7222,
      "వేయాలని": 7223,
      "నిరోధి": 7224,
      "ఇటూ": 7225,
      "షార్": 7226,
      "గేమ్": 7227,
      "అనవసర": 7228,
      "లోపలి": 7229,
      "సీసీఐ": 7230,
      "అడిగాడు": 7231,
      "తై": 7232,
      "పాము": 7233,
      "శిష్య": 7234,
      "పరమా": 7235,
      "టైన్": 7236,
      "కుటుంబంలో": 7237,
      "వాహనాలు": 7238,
      "క్యాచ్": 7239,
      "హఠాత్తుగా": 7240,
      "కపోవడంతో": 7241,
      "ధనం": 7242,
      "రెగ్య": 7243,
      "బితే": 7244,
      "సినిమాకి": 7245,
      "సందీ": 7246,
      "ప్రవా": 7247,
      "వీల్": 7248,
      "వ్యవసా": 7249,
      "క్రింది": 7250,
      "ంచాడని": 7251,
      "ఏడ్": 7252,
      "బతుకు": 7253,
      "హిక": 7254,
      "వ్యాక్సి": 7255,
      "చదివిన": 7256,
      "ఒలింపిక్స్": 7257,
      "మజ్": 7258,
      "బీర్": 7259,
      "వ్యాయా": 7260,
      "పరిశీలన": 7261,
      "సెలవు": 7262,
      "ప్రచారంలో": 7263,
      "ఔషధ": 7264,
      "సలా": 7265,
      "స్క్రి": 7266,
      "డిపాజి": 7267,
      "పోగొ": 7268,
      "కొట్టిన": 7269,
      "సాగే": 7270,
      "దానితో": 7271,
      "ఫ్యూ": 7272,
      "రమ్మ": 7273,
      "రజనీ": 7274,
      "ట్ను": 7275,
      "బ్బి": 7276,
      "దేవతలు": 7277,
      "ఇంతలో": 7278,
      "లార్": 7279,
      "శరత్": 7280,
      "తేజ్": 7281,
      "గోపీ": 7282,
      "ఉత్కంఠ": 7283,
      "ప్రారంభించాడు": 7284,
      "చెప్పుకొచ్చారు": 7285,
      "అసోసి": 7286,
      "ట్లీ": 7287,
      "విడా": 7288,
      "మాబాద్": 7289,
      "కాదా": 7290,
      "సునీల్": 7291,
      "కోండి": 7292,
      "అంబా": 7293,
      "అందించే": 7294,
      "తున్నాం": 7295,
      "ఎవ్": 7296,
      "ఇన్నింగ్": 7297,
      "మంటలు": 7298,
      "ఎంతగానో": 7299,
      "స్మార్ట్": 7300,
      "చూసినా": 7301,
      "పరిచయ": 7302,
      "కంట్రో": 7303,
      "72": 7304,
      "చేయడంలో": 7305,
      "నెక్": 7306,
      "వ్యాపారు": 7307,
      "కలిగించే": 7308,
      "ఒక్కరూ": 7309,
      "అంతర్గత": 7310,
      "పెట్టుబడులు": 7311,
      "మూత్ర": 7312,
      "కారుల": 7313,
      "ఖాతాలో": 7314,
      "ప్రకాష్": 7315,
      "అభ్యర్థుల": 7316,
      "కలను": 7317,
      "విప్ల": 7318,
      "వ్యాపి": 7319,
      "మృతదేహాన్ని": 7320,
      "మొత్తాన్ని": 7321,
      "ఎకరాల": 7322,
      "సెక్యూరిటీ": 7323,
      "నిత్య": 7324,
      "కులతో": 7325,
      "తీశారు": 7326,
      "ప్రముఖులు": 7327,
      "కోరింది": 7328,
      "ఆఫర్": 7329,
      "ఎద": 7330,
      "చాయి": 7331,
      "చ్చె": 7332,
      "చెబితే": 7333,
      "టీటీడీ": 7334,
      "సమంత": 7335,
      "అర్హ": 7336,
      "దీనిలో": 7337,
      "గిరిజన": 7338,
      "అమ్మాయిని": 7339,
      "మహేంద్ర": 7340,
      "ఎందరో": 7341,
      "హాలను": 7342,
      "ప్రతా": 7343,
      "వికెట్ల": 7344,
      "కాళ": 7345,
      "తోన్న": 7346,
      "హాన్": 7347,
      "విధ్": 7348,
      "ల్తా": 7349,
      "టిన్": 7350,
      "పావు": 7351,
      "వేష": 7352,
      "స్ట్రా": 7353,
      "లలోని": 7354,
      "చర్మం": 7355,
      "ఫ్యాక్టరీ": 7356,
      "మౌనంగా": 7357,
      "మద్రాసు": 7358,
      "నక్": 7359,
      "పురుగు": 7360,
      "మీనా": 7361,
      "ధ్వని": 7362,
      "ఫేస్": 7363,
      "క్రికెటర్": 7364,
      "ఆరుగురు": 7365,
      "చంద్": 7366,
      "పిలవ": 7367,
      "సాని": 7368,
      "కెన్": 7369,
      "2021": 7370,
      "ప్రజల్లో": 7371,
      "చిరునవ్వు": 7372,
      "వైవిధ్య": 7373,
      "మెల్లగా": 7374,
      "టన్న": 7375,
      "శరణ": 7376,
      "షారు": 7377,
      "తెచ్చిన": 7378,
      "అందువలన": 7379,
      "నిర్వహించి": 7380,
      "కేసుల": 7381,
      "ట్రాక్": 7382,
      "గౌతమ్": 7383,
      "దాల్": 7384,
      "విభిన్న": 7385,
      "తెప్పి": 7386,
      "బీసీసీఐ": 7387,
      "నిర్వహించే": 7388,
      "భక్తులకు": 7389,
      "తల్లిదండ్రుల": 7390,
      "లభ్య": 7391,
      "విరిగి": 7392,
      "పోల్": 7393,
      "లకుండా": 7394,
      "జిహా": 7395,
      "సెమీ": 7396,
      "టాలు": 7397,
      "సైన్యా": 7398,
      "నిందితు": 7399,
      "జీవనం": 7400,
      "తప్పనిసరి": 7401,
      "బీభత్స": 7402,
      "ఎద్దేవా": 7403,
      "బంగా": 7404,
      "ంచాలనే": 7405,
      "మిటో": 7406,
      "తమను": 7407,
      "తరుణంలో": 7408,
      "దేవతల": 7409,
      "జరుగ": 7410,
      "వైఎస్ఆర్": 7411,
      "సందీప్": 7412,
      "చప్పుడు": 7413,
      "నమ్": 7414,
      "పదో": 7415,
      "లర్లు": 7416,
      "ంగాన్ని": 7417,
      "యాభై": 7418,
      "దీపా": 7419,
      "ంచుకోవడానికి": 7420,
      "ముందుగానే": 7421,
      "కీలకమైన": 7422,
      "స్టేషన్లో": 7423,
      "హర్ష": 7424,
      "ఇక్కడికి": 7425,
      "ఇరాన్": 7426,
      "ఆంక్షలు": 7427,
      "అంబేద్కర్": 7428,
      "బస": 7429,
      "స్వర్ణ": 7430,
      "రెండుసార్లు": 7431,
      "దృష్టం": 7432,
      "చుకుంది": 7433,
      "ఇలాగే": 7434,
      "కిడ్నా": 7435,
      "ఎలు": 7436,
      "యులకు": 7437,
      "షాపు": 7438,
      "వాస్తవం": 7439,
      "పదిహేను": 7440,
      "హర్యా": 7441,
      "చావు": 7442,
      "ంచుకోవచ్చు": 7443,
      "క్తంగా": 7444,
      "ప్రపంచంలోని": 7445,
      "యంత్రా": 7446,
      "మార్క్": 7447,
      "ముఖ్యమంత్రిగా": 7448,
      "కొనసాగుతోంది": 7449,
      "మేనేజ్": 7450,
      "కొచ్చిన": 7451,
      "ప్రయాణ": 7452,
      "ఎప్పుడ": 7453,
      "తెరు": 7454,
      "చుట్ట": 7455,
      "వివాద": 7456,
      "ఆడే": 7457,
      "నేనూ": 7458,
      "కారుడు": 7459,
      "వస్త": 7460,
      "నివ్వ": 7461,
      "దులను": 7462,
      "మేక్": 7463,
      "ధర్మరాజు": 7464,
      "అక్టోబరు": 7465,
      "ప్రదర్శ": 7466,
      "అనుసరించి": 7467,
      "షియం": 7468,
      "ఖాతా": 7469,
      "చారానికి": 7470,
      "బెర్": 7471,
      "కనిపించడం": 7472,
      "హింసా": 7473,
      "కామెడీ": 7474,
      "పారామెడికల్": 7475,
      "ఈశా": 7476,
      "ంచబడు": 7477,
      "2016": 7478,
      "కనబడ": 7479,
      "బాధితు": 7480,
      "ట్రీ": 7481,
      "శాంత": 7482,
      "విస్తరణ": 7483,
      "కలుగుతుంది": 7484,
      "జంటగా": 7485,
      "బలోపే": 7486,
      "గాయని": 7487,
      "త్తీస్": 7488,
      "నేతృత్వంలోని": 7489,
      "విలీ": 7490,
      "సంపూర్ణ": 7491,
      "వీటికి": 7492,
      "కాలువ": 7493,
      "సినిమాలకు": 7494,
      "తృప్తి": 7495,
      "తెరకెక్కిన": 7496,
      "ఆదరణ": 7497,
      "ంగే": 7498,
      "భారతి": 7499,
      "లైఫ్": 7500,
      "ండీస్": 7501,
      "పరువు": 7502,
      "ఢిల్లీలోని": 7503,
      "పిలుస్తారు": 7504,
      "తత్వ": 7505,
      "బాలా": 7506,
      "సటి": 7507,
      "ఒకటే": 7508,
      "ఎన్నికైన": 7509,
      "అసంతృప్తి": 7510,
      "సిబ్బ": 7511,
      "నిలబె": 7512,
      "కమైన": 7513,
      "వద్దు": 7514,
      "హాల్": 7515,
      "సేప": 7516,
      "తీసుకున్నా": 7517,
      "వాదనలు": 7518,
      "బ్రాహ్మణ": 7519,
      "కలె": 7520,
      "స్థాప": 7521,
      "ఉండేలా": 7522,
      "పెట్రోల్": 7523,
      "వేస్తున్నారు": 7524,
      "విద్యను": 7525,
      "కడప": 7526,
      "చేరే": 7527,
      "వేదా": 7528,
      "అసెంబ్లీలో": 7529,
      "పర్యాట": 7530,
      "లిక్కి": 7531,
      "రెట్లు": 7532,
      "190": 7533,
      "సంతోషం": 7534,
      "నవ్వుతూ": 7535,
      "కట్టే": 7536,
      "టౌన్": 7537,
      "విరమణ": 7538,
      "భాగాలు": 7539,
      "జాతర": 7540,
      "శిష్ట": 7541,
      "శోభ": 7542,
      "పొరపాటు": 7543,
      "నే్న": 7544,
      "దయా": 7545,
      "వింగ్": 7546,
      "తిప్ప": 7547,
      "నీడ": 7548,
      "చేయగలి": 7549,
      "2018": 7550,
      "త్రీ": 7551,
      "అభినంద": 7552,
      "వారంలో": 7553,
      "జోన్": 7554,
      "కొంతకాలం": 7555,
      "సాంఘిక": 7556,
      "డన్": 7557,
      "వాదాలు": 7558,
      "నేరం": 7559,
      "అంతటి": 7560,
      "అవుతున్న": 7561,
      "ఆలోచ": 7562,
      "ఆకర్షణ": 7563,
      "వస్తున్నారు": 7564,
      "పనితీరు": 7565,
      "పడలేదు": 7566,
      "జరుగుతుందని": 7567,
      "ఐక్యరాజ్య": 7568,
      "మడ": 7569,
      "పియన్": 7570,
      "స్టై": 7571,
      "కారణాల": 7572,
      "తీర్చిది": 7573,
      "సూక్ష్మ": 7574,
      "ఇప్పుడే": 7575,
      "భ్యా": 7576,
      "సున్ని": 7577,
      "ద్దె": 7578,
      "ఛాన్స్": 7579,
      "ప్రొడక్షన్": 7580,
      "తలకు": 7581,
      "లిప్": 7582,
      "వెళ": 7583,
      "మీరే": 7584,
      "రెచ్చ": 7585,
      "ఉపయోగించి": 7586,
      "సమక్షంలో": 7587,
      "అహం": 7588,
      "ఆంజనే": 7589,
      "సంధి": 7590,
      "్రాజు": 7591,
      "వర్త": 7592,
      "మూత": 7593,
      "ట్లయితే": 7594,
      "సమీక్ష": 7595,
      "పరిస్థితులను": 7596,
      "అతిథి": 7597,
      "కోల్పోయిన": 7598,
      "సెప్టెంబరు": 7599,
      "62": 7600,
      "దాం": 7601,
      "కారణమని": 7602,
      "ంగుల": 7603,
      "నిండు": 7604,
      "చేరాడు": 7605,
      "వండి": 7606,
      "జగన్నా": 7607,
      "దెబ్బతి": 7608,
      "అభ్యర్థిగా": 7609,
      "జట్లు": 7610,
      "ఠీ": 7611,
      "సభా": 7612,
      "కూలీ": 7613,
      "్రావు": 7614,
      "స్థులు": 7615,
      "భూత": 7616,
      "ఇళ్లు": 7617,
      "ఏకా": 7618,
      "అన్నయ్య": 7619,
      "లండన్": 7620,
      "వర్గీ": 7621,
      "పెట్టాలని": 7622,
      "చాంపియన్": 7623,
      "టైం": 7624,
      "2014లో": 7625,
      "ఇజ్రాయిల్": 7626,
      "అధిగమి": 7627,
      "ప్రారంభమైన": 7628,
      "మారాయి": 7629,
      "డిజైన్": 7630,
      "నిర్లక్ష్యం": 7631,
      "కలుగ": 7632,
      "ఫీజు": 7633,
      "కార్యక్రమాలను": 7634,
      "నిగా": 7635,
      "స్థాపన": 7636,
      "ఎలాగ": 7637,
      "మ్యాచ్లు": 7638,
      "కోల్క": 7639,
      "గడుపు": 7640,
      "కునేందుకు": 7641,
      "వంతుడు": 7642,
      "ఉగ్రవాదులు": 7643,
      "ప్రశంసి": 7644,
      "తాత్కాలిక": 7645,
      "ఉంచు": 7646,
      "పోరు": 7647,
      "అవుట్": 7648,
      "సమయంలోనే": 7649,
      "సౌకర్యాలు": 7650,
      "ధీర్": 7651,
      "ధర్మం": 7652,
      "డిసెంబరు": 7653,
      "ప్రయోజనాలు": 7654,
      "అకాడ": 7655,
      "ఉల్లి": 7656,
      "హల్": 7657,
      "వాటర్": 7658,
      "చేశాం": 7659,
      "అంట": 7660,
      "ఓడ": 7661,
      "కమర్": 7662,
      "గుండా": 7663,
      "చెట్ల": 7664,
      "కాలానికి": 7665,
      "ఇంటర్నేషనల్": 7666,
      "వాతే": 7667,
      "రోజే": 7668,
      "లీగ్": 7669,
      "వనే": 7670,
      "ల్సిన": 7671,
      "ద్దరు": 7672,
      "ధీమా": 7673,
      "ప్రేక్షకులకు": 7674,
      "శారీరక": 7675,
      "ఇందిరా": 7676,
      "శుభాకాం": 7677,
      "బెస్ట్": 7678,
      "భట్టి": 7679,
      "త్తో": 7680,
      "ంలోనూ": 7681,
      "అనుకూల": 7682,
      "క్లబ్": 7683,
      "నిషేధం": 7684,
      "కార్మికులు": 7685,
      "ధరించి": 7686,
      "సద్": 7687,
      "జాడ": 7688,
      "పరిచి": 7689,
      "చిత్రాలలో": 7690,
      "క్రేజ్": 7691,
      "ఇతను": 7692,
      "చతు": 7693,
      "పరం": 7694,
      "నిదర్శనం": 7695,
      "ముహ": 7696,
      "డాన్": 7697,
      "లెన్స్": 7698,
      "చెప్పినా": 7699,
      "పిలిచి": 7700,
      "సింధు": 7701,
      "ఐఏ": 7702,
      "కనే": 7703,
      "సవరి": 7704,
      "ంతలు": 7705,
      "చేయడమే": 7706,
      "ఆవిర్": 7707,
      "కూతురి": 7708,
      "మరుసటి": 7709,
      "డ్రి": 7710,
      "కుదర": 7711,
      "ఆర్ట్స్": 7712,
      "2020": 7713,
      "స్వప్": 7714,
      "బహుళ": 7715,
      "సాహిత్యం": 7716,
      "సిబ్బందీ": 7717,
      "నందు": 7718,
      "రసం": 7719,
      "రుడు": 7720,
      "త్న": 7721,
      "వుందని": 7722,
      "నీయంగా": 7723,
      "దొరుకు": 7724,
      "లేదన్న": 7725,
      "ముగింపు": 7726,
      "హత్యకు": 7727,
      "ఇండో": 7728,
      "ఆన్లైన్": 7729,
      "జత": 7730,
      "యాల్లో": 7731,
      "తోనూ": 7732,
      "నిలబడ": 7733,
      "ప్రశంసలు": 7734,
      "సచివాల": 7735,
      "క్రెడిట్": 7736,
      "ఎపి": 7737,
      "భరో": 7738,
      "చెబుతూ": 7739,
      "వ్యవహారాల": 7740,
      "అధ్యక్షుడిగా": 7741,
      "అరే": 7742,
      "పోలేదు": 7743,
      "పెంచే": 7744,
      "ప్రతిరోజూ": 7745,
      "తీసుకున్నాడు": 7746,
      "యూనియన్": 7747,
      "బృహ": 7748,
      "పదార్థాలు": 7749,
      "స్మా": 7750,
      "పోతాడు": 7751,
      "మిత్రు": 7752,
      "2015": 7753,
      "చెబుతున్నాయి": 7754,
      "ఇన్నింగ్స్లో": 7755,
      "పలికి": 7756,
      "ంచో": 7757,
      "తెల": 7758,
      "శాస": 7759,
      "ణాన": 7760,
      "ంచుకునేందుకు": 7761,
      "ఉంటున్న": 7762,
      "కరాలు": 7763,
      "డబుల్": 7764,
      "పట": 7765,
      "లవు": 7766,
      "వాళ్లకు": 7767,
      "తరువాతి": 7768,
      "రావాలి": 7769,
      "గౌడ్": 7770,
      "చేతు": 7771,
      "చెట్లు": 7772,
      "కెళ్ళ": 7773,
      "రాజ్యాంగం": 7774,
      "ఆడియన్స్": 7775,
      "కోడి": 7776,
      "స్తామన్నారు": 7777,
      "ఫిట్": 7778,
      "పడతారు": 7779,
      "నిర్ణయానికి": 7780,
      "అత్యున్నత": 7781,
      "ముట్ట": 7782,
      "సంపన్న": 7783,
      "కొరి": 7784,
      "చూడండి": 7785,
      "శిల్ప": 7786,
      "కావటం": 7787,
      "ప్రత్యేకమైన": 7788,
      "నిర్ధారణ": 7789,
      "పెంపొంది": 7790,
      "ఇన్నా": 7791,
      "థం": 7792,
      "తుంటాయి": 7793,
      "నిలిచిన": 7794,
      "భోజన": 7795,
      "ఎదుర్కొంటున్న": 7796,
      "సహాయంతో": 7797,
      "పరిణామం": 7798,
      "తెరిచి": 7799,
      "కుంభకో": 7800,
      "నమెంట్": 7801,
      "నొక": 7802,
      "స్కో": 7803,
      "విజ్ఞాన": 7804,
      "పేందుకు": 7805,
      "సేకరణ": 7806,
      "వుండదు": 7807,
      "ఆదాయ": 7808,
      "నెలకొల్": 7809,
      "3లో": 7810,
      "యాలి": 7811,
      "ప్రార్": 7812,
      "సిగ్": 7813,
      "2008": 7814,
      "చేస్తాను": 7815,
      "మ్రాన్": 7816,
      "రౌండ్": 7817,
      "ఇస్లాం": 7818,
      "రాఘవ": 7819,
      "ఖైదీ": 7820,
      "జిన్": 7821,
      "సంస్థలకు": 7822,
      "దళాలు": 7823,
      "ఛై": 7824,
      "ఫౌ": 7825,
      "మలుపు": 7826,
      "వసు": 7827,
      "చుకుంటూ": 7828,
      "భావించారు": 7829,
      "ఆర్థికంగా": 7830,
      "సొసై": 7831,
      "పొందుతున్న": 7832,
      "బానిస": 7833,
      "74": 7834,
      "85": 7835,
      "ప్రపంచంలోనే": 7836,
      "ఆదిలా": 7837,
      "నువ్వే": 7838,
      "వసం": 7839,
      "్రాన్": 7840,
      "లైన్లో": 7841,
      "ప్రత్యేకత": 7842,
      "పాల్గొని": 7843,
      "బంధువులు": 7844,
      "అచ్చ": 7845,
      "పాలను": 7846,
      "శాలి": 7847,
      "స్రా": 7848,
      "స్తుందో": 7849,
      "నెలా": 7850,
      "మృదు": 7851,
      "చేస్తాం": 7852,
      "గ్రామములో": 7853,
      "వాస్తవానికి": 7854,
      "తిరిగే": 7855,
      "విస్తృత": 7856,
      "అమరావతి": 7857,
      "చచ్చి": 7858,
      "ోల్": 7859,
      "కలకలం": 7860,
      "ఇంకె": 7861,
      "రంగాల్లో": 7862,
      "క్యార": 7863,
      "క్కే": 7864,
      "విలి": 7865,
      "చుకొని": 7866,
      "జాత": 7867,
      "స్నేహం": 7868,
      "అక్షర": 7869,
      "డాలర్": 7870,
      "ఓటీటీ": 7871,
      "స్ను": 7872,
      "ఆర్టి": 7873,
      "కరణం": 7874,
      "ఫీల్": 7875,
      "వచ్చినట్లు": 7876,
      "ూరులో": 7877,
      "మారిపోయింది": 7878,
      "వెళ్ళా": 7879,
      "నడిచి": 7880,
      "భాగాన్ని": 7881,
      "శృతి": 7882,
      "ఉచితంగా": 7883,
      "అయన": 7884,
      "ర్రె": 7885,
      "ఉందో": 7886,
      "ములతో": 7887,
      "చున్నది": 7888,
      "సైకిల్": 7889,
      "విముక్తి": 7890,
      "వామపక్ష": 7891,
      "ఆఖరి": 7892,
      "ఉడికి": 7893,
      "పన్నె": 7894,
      "విప": 7895,
      "ముఠా": 7896,
      "చెమ": 7897,
      "ఇప్పి": 7898,
      "నాన్": 7899,
      "వీలుగా": 7900,
      "పోరాట": 7901,
      "ఎడ్": 7902,
      "అందుకుంది": 7903,
      "కష్టపడి": 7904,
      "పుస్తక": 7905,
      "ఇంగ్ల": 7906,
      "ములోని": 7907,
      "ప్రాముఖ్య": 7908,
      "మైనారిటీ": 7909,
      "సంవత్సరాలుగా": 7910,
      "తున్నామని": 7911,
      "గుర్తొ": 7912,
      "అవినీ": 7913,
      "వ్యవస్థలో": 7914,
      "చట్టాన్ని": 7915,
      "అరుదైన": 7916,
      "తీర్పును": 7917,
      "ంచన": 7918,
      "రిన": 7919,
      "వచ్చేసరికి": 7920,
      "ఫుడ్": 7921,
      "తెచ్చుకున్న": 7922,
      "తుందన్నారు": 7923,
      "క్కులు": 7924,
      "దొరి": 7925,
      "పలికారు": 7926,
      "నట": 7927,
      "పొట్ట": 7928,
      "సమానంగా": 7929,
      "కొన్నిసార్లు": 7930,
      "బంధం": 7931,
      "విచారణలో": 7932,
      "చేస్తున్నామని": 7933,
      "కాయలు": 7934,
      "పత్రాలు": 7935,
      "ప్రథమ": 7936,
      "యోధ": 7937,
      "మనిషిని": 7938,
      "బహుమతి": 7939,
      "76": 7940,
      "చలం": 7941,
      "జాలి": 7942,
      "లోనికి": 7943,
      "ప్లీ": 7944,
      "రెవెన్యూ": 7945,
      "ంట్ల": 7946,
      "స్థాపి": 7947,
      "దూసు": 7948,
      "నృత్య": 7949,
      "శుభాకాంక్షలు": 7950,
      "ఎలి": 7951,
      "డనే": 7952,
      "దన్నారు": 7953,
      "పువ్వు": 7954,
      "డీఎంకే": 7955,
      "అనుకున్నాడు": 7956,
      "పలకరి": 7957,
      "రౌడీ": 7958,
      "హొ": 7959,
      "సుబ్రహ్మ": 7960,
      "కొక": 7961,
      "సమాధి": 7962,
      "స్వాగతం": 7963,
      "మేనేజర్": 7964,
      "చమురు": 7965,
      "బ్లా": 7966,
      "కీర్": 7967,
      "గ్రామాలు": 7968,
      "సైబర్": 7969,
      "నల్గొండ": 7970,
      "ఆవ": 7971,
      "ద్వారం": 7972,
      "బాడీ": 7973,
      "పార్టీలకు": 7974,
      "తొలిసారిగా": 7975,
      "ఎందుకో": 7976,
      "పర్యాటక": 7977,
      "దైవ": 7978,
      "తప్పనిసరిగా": 7979,
      "స్టూడియో": 7980,
      "జిహాదీ": 7981,
      "రాధా": 7982,
      "వుంటు": 7983,
      "క్కడే": 7984,
      "సిద్ధమవు": 7985,
      "పొందాడు": 7986,
      "శృంగ": 7987,
      "సిక్సర్": 7988,
      "ఫలం": 7989,
      "గాన": 7990,
      "మానాన్ని": 7991,
      "ాలనుకు": 7992,
      "ప్రయత్నంలో": 7993,
      "నిలవ": 7994,
      "ఆర": 7995,
      "ఆచార్య": 7996,
      "ర్య": 7997,
      "ర్యం": 7998,
      "కోవి": 7999,
      "ఒకరోజు": 8000,
      "అభివర్ణి": 8001,
      "ఉద్యోగి": 8002,
      "సందర్భాల్లో": 8003,
      "శాశ్వత": 8004,
      "ధన్య": 8005,
      "నటీ": 8006,
      "మన్నా": 8007,
      "రష్": 8008,
      "పురో": 8009,
      "ండో": 8010,
      "వ్యర్థ": 8011,
      "అయిపోయింది": 8012,
      "మంత్": 8013,
      "జట్టును": 8014,
      "ఘట్ట": 8015,
      "ంద్రి": 8016,
      "్రీయ": 8017,
      "ప్రభుత్వంలో": 8018,
      "ఉద్యోగా": 8019,
      "గట్ట": 8020,
      "జయి": 8021,
      "నాతన": 8022,
      "సీన్": 8023,
      "నిర్మాణంలో": 8024,
      "ఆటగాడు": 8025,
      "స్పష్టమైన": 8026,
      "నెటిజన్": 8027,
      "సెక్రటరీ": 8028,
      "అపు": 8029,
      "వానీ": 8030,
      "పోతుందని": 8031,
      "చూస్తోంది": 8032,
      "జియో": 8033,
      "వైట్": 8034,
      "పొద్దు": 8035,
      "మారెడ్డి": 8036,
      "నిరాకరి": 8037,
      "నవంబరు": 8038,
      "తిరస్కరి": 8039,
      "కల్లో": 8040,
      "వరో": 8041,
      "శారని": 8042,
      "లోన": 8043,
      "వాళ్లను": 8044,
      "డిపి": 8045,
      "భాను": 8046,
      "ధ్యక్ష": 8047,
      "గలదు": 8048,
      "సాయంతో": 8049,
      "పెరిగాయి": 8050,
      "నిం": 8051,
      "గాయం": 8052,
      "చిట్": 8053,
      "జేడీ": 8054,
      "ఉన్నతాధి": 8055,
      "ఇవే": 8056,
      "ఇరువు": 8057,
      "నితీ": 8058,
      "చిద": 8059,
      "క్రిమి": 8060,
      "నగరానికి": 8061,
      "డెవల": 8062,
      "చెబుతోంది": 8063,
      "ముగిసింది": 8064,
      "నాగరిక": 8065,
      "కరెన్సీ": 8066,
      "రెండేళ్ల": 8067,
      "మనుషుల": 8068,
      "వివాదాస్పద": 8069,
      "ఎగిరి": 8070,
      "డౌన్": 8071,
      "తార్": 8072,
      "న్నం": 8073,
      "స్తుతి": 8074,
      "కలుసుకు": 8075,
      "మానసి": 8076,
      "డోర్": 8077,
      "ప్లాట్": 8078,
      "పౌరస": 8079,
      "ఆటగాళ్లు": 8080,
      "కేంద్రానికి": 8081,
      "హారి": 8082,
      "ప్రవ": 8083,
      "సమకూర్": 8084,
      "రాజమౌళి": 8085,
      "చెప్పడానికి": 8086,
      "శ్రీధర్": 8087,
      "టెన్షన్": 8088,
      "హెలికా": 8089,
      "స్టేడి": 8090,
      "వెలిగి": 8091,
      "కసి": 8092,
      "ప్రదేశం": 8093,
      "విశ": 8094,
      "తిప్పు": 8095,
      "శాను": 8096,
      "తనదైన": 8097,
      "వచ్చును": 8098,
      "అందించాడు": 8099,
      "అభ్యంతరం": 8100,
      "స్టాక్": 8101,
      "చేర్చ": 8102,
      "అన్వే": 8103,
      "గ్రూపు": 8104,
      "చుట్టుపక్కల": 8105,
      "వజ్ర": 8106,
      "పోలవరం": 8107,
      "మసీదు": 8108,
      "దాట": 8109,
      "తనూ": 8110,
      "దేశంలోనే": 8111,
      "భీమ": 8112,
      "ఉప్ప": 8113,
      "గందర": 8114,
      "కుంత": 8115,
      "కొన్నాడు": 8116,
      "కాంగ్రెస్కు": 8117,
      "సముద్రంలో": 8118,
      "ఇంద్రుని": 8119,
      "ఆరోజు": 8120,
      "వింత": 8121,
      "కాపు": 8122,
      "భుజం": 8123,
      "వల్లనే": 8124,
      "చక్కని": 8125,
      "చంపి": 8126,
      "విశ్వాస": 8127,
      "వివక్ష": 8128,
      "నిశ్శబ్ద": 8129,
      "మహమ్మద్": 8130,
      "సారీ": 8131,
      "ౌట్": 8132,
      "కుంట": 8133,
      "భావాలు": 8134,
      "కోవడంతో": 8135,
      "సౌర": 8136,
      "పరిణామాలు": 8137,
      "నివారణ": 8138,
      "ఇంటర్వ్యూలో": 8139,
      "సందడి": 8140,
      "త్వానికి": 8141,
      "అందుకని": 8142,
      "దాడిలో": 8143,
      "రచనలు": 8144,
      "ఉద్దేశించి": 8145,
      "విటమిన్": 8146,
      "డున్న": 8147,
      "చెత్త": 8148,
      "సాగిన": 8149,
      "జీపీ": 8150,
      "మైందని": 8151,
      "నందమూరి": 8152,
      "శరీరాన్ని": 8153,
      "కొనసాగుతున్న": 8154,
      "ఉదాహరణకు": 8155,
      "బ్రిటీష్": 8156,
      "తెరకెక్కుతున్న": 8157,
      "కానిస్టేబుల్": 8158,
      "కమర్షియల్": 8159,
      "తము": 8160,
      "మంగ": 8161,
      "ేదు": 8162,
      "క్లీ": 8163,
      "చేతిని": 8164,
      "సాక్షి": 8165,
      "క్రితమే": 8166,
      "స్టార్ట్": 8167,
      "నగరంలోని": 8168,
      "ంబాయి": 8169,
      "తమ్ముడు": 8170,
      "ంచాల": 8171,
      "నేపాల్": 8172,
      "నీల": 8173,
      "సినిమాపై": 8174,
      "టాస్": 8175,
      "ఖాయం": 8176,
      "సంస్థకు": 8177,
      "చీక": 8178,
      "వచ్చాను": 8179,
      "రాలిగా": 8180,
      "ప్రశాంతంగా": 8181,
      "శారద": 8182,
      "ఊహ": 8183,
      "వెస్టి": 8184,
      "వరకే": 8185,
      "మార్కులు": 8186,
      "సమీక్షి": 8187,
      "ఆధార్": 8188,
      "జరగనుంది": 8189,
      "అంగీ": 8190,
      "స్ట్రేషన్": 8191,
      "విషాద": 8192,
      "సులభంగా": 8193,
      "మమతా": 8194,
      "విందు": 8195,
      "బిందు": 8196,
      "చిత్రంగా": 8197,
      "గంజాయి": 8198,
      "ప్రపంచానికి": 8199,
      "రాజకీయం": 8200,
      "దగ్గిర": 8201,
      "చేస్తోందని": 8202,
      "మెట్ల": 8203,
      "మార్లు": 8204,
      "బెంచ్": 8205,
      "చేసేవారు": 8206,
      "నిర్మిస్తున్న": 8207,
      "మారే": 8208,
      "ఆనాటి": 8209,
      "సాగారు": 8210,
      "దేశీయ": 8211,
      "వెళ్ళారు": 8212,
      "అడిగితే": 8213,
      "వేధింపు": 8214,
      "నానా": 8215,
      "జాలు": 8216,
      "వ్వి": 8217,
      "డేమో": 8218,
      "ప్రభుత్వంపై": 8219,
      "విధించింది": 8220,
      "మహబూబ్": 8221,
      "లియో": 8222,
      "జాయ్": 8223,
      "శిక్షి": 8224,
      "బ్రతుకు": 8225,
      "ళితే": 8226,
      "వెళ్ళిపోయింది": 8227,
      "కూర్చొ": 8228,
      "నారా": 8229,
      "మమ్ము": 8230,
      "యుధ": 8231,
      "తూర్": 8232,
      "భూములు": 8233,
      "నిర్వహిస్తున్నారు": 8234,
      "పాలకులు": 8235,
      "వదల": 8236,
      "నెల్": 8237,
      "అనుమానాలు": 8238,
      "ఎంతోమంది": 8239,
      "కైవసం": 8240,
      "దిగువ": 8241,
      "ప్రెసిడెంట్": 8242,
      "నక్క": 8243,
      "బీఐ": 8244,
      "చేసుకున్నా": 8245,
      "తులైన": 8246,
      "నిలిచాడు": 8247,
      "సూచించింది": 8248,
      "మైదానంలో": 8249,
      "స్వాతంత్ర్య": 8250,
      "న్నట్లు": 8251,
      "పుల్ల": 8252,
      "కావాలంటే": 8253,
      "బొగ్గు": 8254,
      "సంతోషి": 8255,
      "నగరాల్లో": 8256,
      "ప్రతిపక్షాలు": 8257,
      "ఇటలీ": 8258,
      "కిడ్నాప్": 8259,
      "భరోసా": 8260,
      "95": 8261,
      "కమీ": 8262,
      "సారం": 8263,
      "ందనీ": 8264,
      "వరస": 8265,
      "శ్రీనివాసరావు": 8266,
      "అవే": 8267,
      "కుది": 8268,
      "ంచబడి": 8269,
      "పేస్": 8270,
      "వారాల": 8271,
      "వైద్యశాల": 8272,
      "తిరుగుతూ": 8273,
      "ఆశలు": 8274,
      "అర్ధరాత్రి": 8275,
      "కప్ప": 8276,
      "రకాలుగా": 8277,
      "వర్షా": 8278,
      "టర్స్": 8279,
      "వాళ్ళకు": 8280,
      "ల్స్లో": 8281,
      "ఒకటిగా": 8282,
      "మొక్కలు": 8283,
      "వేర్వేరు": 8284,
      "ఆపే": 8285,
      "గడ్డి": 8286,
      "లోటు": 8287,
      "ట్టుకుని": 8288,
      "పాయింట్లు": 8289,
      "భ్రమ": 8290,
      "స్నేహితులు": 8291,
      "పబ్లి": 8292,
      "ాల్సిందిగా": 8293,
      "71": 8294,
      "దుస్తులు": 8295,
      "వేటు": 8296,
      "చెప్పలేదు": 8297,
      "అధ్యయన": 8298,
      "సృష్టించిన": 8299,
      "ఫార్మా": 8300,
      "ఛైర్మన్": 8301,
      "సికింద": 8302,
      "వీడు": 8303,
      "బ్లూ": 8304,
      "అవమాన": 8305,
      "గంటల్లో": 8306,
      "వనరుల": 8307,
      "వర్గానికి": 8308,
      "చిదంబ": 8309,
      "ణ్యం": 8310,
      "ముద్రి": 8311,
      "చిత": 8312,
      "రీమేక్": 8313,
      "కథనం": 8314,
      "వ్యాప్తి": 8315,
      "లోపలకు": 8316,
      "స్పెక్టర్": 8317,
      "తపస్సు": 8318,
      "దనం": 8319,
      "షన": 8320,
      "జామున": 8321,
      "భిప్రా": 8322,
      "చర్యలను": 8323,
      "వున్నది": 8324,
      "విలన్": 8325,
      "నాగేశ్వరరావు": 8326,
      "హెల్త్": 8327,
      "వడి": 8328,
      "ంచనుంది": 8329,
      "పోతున్నాడు": 8330,
      "వేస్తే": 8331,
      "వైష్ణ": 8332,
      "పరిస్థితిలో": 8333,
      "చూడటం": 8334,
      "ప్రీమి": 8335,
      "కొట్టింది": 8336,
      "క్లాస్": 8337,
      "కాకినాడ": 8338,
      "ఇస్తూ": 8339,
      "ఏసీ": 8340,
      "స్పర్": 8341,
      "చూచి": 8342,
      "అశ్విన్": 8343,
      "దిక్": 8344,
      "వుడి": 8345,
      "గింపు": 8346,
      "పరిహారం": 8347,
      "సర్పంచి": 8348,
      "క్యారె": 8349,
      "సహాయక": 8350,
      "మధుర": 8351,
      "73": 8352,
      "రాశి": 8353,
      "పెండింగ్": 8354,
      "వీలైన": 8355,
      "సంతకం": 8356,
      "హీరోయిన్గా": 8357,
      "సల్మాన్": 8358,
      "సోదరుడు": 8359,
      "ఓసారి": 8360,
      "గతంగా": 8361,
      "కుర్ర": 8362,
      "న్నర్": 8363,
      "సంఖ్యా": 8364,
      "పిల్లా": 8365,
      "ారిత": 8366,
      "తాళం": 8367,
      "తెలియక": 8368,
      "అందుకున్నాడు": 8369,
      "ఆశీర్": 8370,
      "క్టు": 8371,
      "మిశ్ర": 8372,
      "ఉపశ": 8373,
      "ఉండేవారు": 8374,
      "తీర్మానం": 8375,
      "దేవుని": 8376,
      "శ్రీకాంత్": 8377,
      "సిఫార్": 8378,
      "తిండి": 8379,
      "జాతీ": 8380,
      "పీడ": 8381,
      "కలిసిన": 8382,
      "మర్యాద": 8383,
      "వివరాల": 8384,
      "కళాశాలలో": 8385,
      "వార్షిక": 8386,
      "అకాడమీ": 8387,
      "కుదిరి": 8388,
      "వెయ్య": 8389,
      "పోయాక": 8390,
      "త్యాలు": 8391,
      "మనుషు": 8392,
      "చెప్పుకో": 8393,
      "బ్యాంకులు": 8394,
      "కాంబి": 8395,
      "చెప్పాను": 8396,
      "క్షమాపణ": 8397,
      "మార్క": 8398,
      "మనస్త": 8399,
      "క్రమం": 8400,
      "అవకాశాన్ని": 8401,
      "కుటుంబాలకు": 8402,
      "ఉష్ణోగ్రత": 8403,
      "నిధులను": 8404,
      "గుమ్మ": 8405,
      "నిందితులు": 8406,
      "ఆస్పత్రికి": 8407,
      "విదితమే": 8408,
      "ఇస్తారు": 8409,
      "్రే": 8410,
      "కాళ్ళు": 8411,
      "ంచేవాడు": 8412,
      "చేస్తూనే": 8413,
      "సమర్థి": 8414,
      "1990": 8415,
      "విరాళ": 8416,
      "ఈనాడు": 8417,
      "రెట్టి": 8418,
      "చిత్రాల్లో": 8419,
      "ణుని": 8420,
      "వెబ్సై": 8421,
      "టట్లు": 8422,
      "థర్": 8423,
      "దసరా": 8424,
      "ర్ని": 8425,
      "జైట్లీ": 8426,
      "తగినంత": 8427,
      "అద్దం": 8428,
      "పరోక్షంగా": 8429,
      "తడు": 8430,
      "యలు": 8431,
      "స్కీ": 8432,
      "సృష్టించింది": 8433,
      "కింగ్స్": 8434,
      "బహిష్": 8435,
      "అప్పుడప్పుడు": 8436,
      "పుచ్చుకు": 8437,
      "తోటి": 8438,
      "చూపులు": 8439,
      "సెక్స్": 8440,
      "ప్పటికి": 8441,
      "చెబుతారు": 8442,
      "చెయ్యాలి": 8443,
      "అభిన": 8444,
      "ఉత్పత్తు": 8445,
      "ప్లాంట్": 8446,
      "ఇండియాలో": 8447,
      "బట్టారు": 8448,
      "వాతావరణంలో": 8449,
      "అజిత్": 8450,
      "దగిన": 8451,
      "ప్రసార": 8452,
      "పార్వ": 8453,
      "నమోదై": 8454,
      "దురదృష్ట": 8455,
      "పృథ్": 8456,
      "ఉల్లంఘి": 8457,
      "దీపావళి": 8458,
      "చదర": 8459,
      "తుక్కు": 8460,
      "ంచినప్పుడు": 8461,
      "తరగ": 8462,
      "ఒడ్డు": 8463,
      "కులం": 8464,
      "మహో": 8465,
      "ఢిల్లీకి": 8466,
      "ఊహించని": 8467,
      "61": 8468,
      "మలే": 8469,
      "వెళ్తున్న": 8470,
      "చంద్రశేఖర్": 8471,
      "చేసుకోవడానికి": 8472,
      "ఆక్": 8473,
      "హర": 8474,
      "తెన": 8475,
      "చెవి": 8476,
      "నిర్వహిస్తున్న": 8477,
      "ఇటీవలి": 8478,
      "బాక్సాఫీ": 8479,
      "అట్టి": 8480,
      "డతను": 8481,
      "కిరీ": 8482,
      "ముసు": 8483,
      "పెర": 8484,
      "పెక్టర్": 8485,
      "తీశాడు": 8486,
      "ప్రయత్న": 8487,
      "సభ్యులకు": 8488,
      "కళ్ళలో": 8489,
      "ఒడిశా": 8490,
      "సెకండ్": 8491,
      "బలోపేతం": 8492,
      "నచ్చిన": 8493,
      "దేమో": 8494,
      "చేయబడిన": 8495,
      "ంచేసి": 8496,
      "పడక": 8497,
      "ఇప్పటికి": 8498,
      "రాజులు": 8499,
      "గడిచి": 8500,
      "అల్లరి": 8501,
      "ఆదరి": 8502,
      "వారని": 8503,
      "నాటు": 8504,
      "గ్రాముల": 8505,
      "పొడు": 8506,
      "బిగి": 8507,
      "చేసుకుంటే": 8508,
      "కనిపిస్తాయి": 8509,
      "విస్తృతంగా": 8510,
      "ఫలితాలను": 8511,
      "మహ్మద్": 8512,
      "నాను": 8513,
      "దుండ": 8514,
      "ంచుట": 8515,
      "డేవిడ్": 8516,
      "అనర్": 8517,
      "దృఢ": 8518,
      "సందేహం": 8519,
      "మురళీ": 8520,
      "రికార్డ్": 8521,
      "ఆరోగ్యానికి": 8522,
      "అంతకంటే": 8523,
      "ఎదుటి": 8524,
      "క్రీస్తు": 8525,
      "వినిపిస్తున్నాయి": 8526,
      "శాశ్వ": 8527,
      "గులాబీ": 8528,
      "గజ": 8529,
      "్రె": 8530,
      "పానికి": 8531,
      "చేయాలనే": 8532,
      "మొండి": 8533,
      "వ్యక్తికి": 8534,
      "నాటకం": 8535,
      "కొరత": 8536,
      "దనే": 8537,
      "కొవ్వు": 8538,
      "త్తర": 8539,
      "చెప్పాలంటే": 8540,
      "దోష": 8541,
      "పరిశోధనలు": 8542,
      "నిలదీశారు": 8543,
      "భయంగా": 8544,
      "యాలని": 8545,
      "విరామ": 8546,
      "దృక్": 8547,
      "కొనసాగింది": 8548,
      "చెయ్యడం": 8549,
      "చక్కెర": 8550,
      "మిలియన్ల": 8551,
      "తగల": 8552,
      "రాష్ట్రాలలో": 8553,
      "ప్రయాణికులు": 8554,
      "డాలర్ల": 8555,
      "అగ": 8556,
      "ఉపరి": 8557,
      "రానుంది": 8558,
      "తేల్చి": 8559,
      "మోడల్": 8560,
      "ఇంజినీ": 8561,
      "పిల్లల్ని": 8562,
      "ార్థం": 8563,
      "ద్రవ్యోల్": 8564,
      "ననే": 8565,
      "నంటూ": 8566,
      "స్పై": 8567,
      "ద్రౌ": 8568,
      "నిర్వహిస్తారు": 8569,
      "లభించిన": 8570,
      "కాల్చి": 8571,
      "పురుషులు": 8572,
      "చెల్లింపు": 8573,
      "ఎంటర్టైన్": 8574,
      "క్షీణి": 8575,
      "ప్రాతినిధ్యం": 8576,
      "సిలి": 8577,
      "లేష్": 8578,
      "సైన్య": 8579,
      "అందిస్తున్నారు": 8580,
      "ంటానని": 8581,
      "సామ్రాజ్య": 8582,
      "ఎలక్ట్రా": 8583,
      "సరదాగా": 8584,
      "ఆశ్చర్యం": 8585,
      "ఈశాన్య": 8586,
      "గలను": 8587,
      "జవ": 8588,
      "ఫండ్": 8589,
      "ర్రి": 8590,
      "వశా": 8591,
      "ెంలో": 8592,
      "నిఖి": 8593,
      "పోని": 8594,
      "చేయని": 8595,
      "గ్రామాల్లో": 8596,
      "క్రియా": 8597,
      "రాజకీయంగా": 8598,
      "గురించిన": 8599,
      "దంపతులు": 8600,
      "అబద్ధ": 8601,
      "శాలను": 8602,
      "ంచుటకు": 8603,
      "సినిమాని": 8604,
      "ఛేది": 8605,
      "ఆరే": 8606,
      "ఎండీ": 8607,
      "ందను": 8608,
      "రాస": 8609,
      "పాక": 8610,
      "గంభీ": 8611,
      "రచించిన": 8612,
      "జుల": 8613,
      "పర్యటనలో": 8614,
      "వివేక్": 8615,
      "అదృష్టం": 8616,
      "చేప": 8617,
      "సేజ్": 8618,
      "సమస్త": 8619,
      "చిత్రాలను": 8620,
      "తలపై": 8621,
      "గమనించిన": 8622,
      "సొసైటీ": 8623,
      "పర్తి": 8624,
      "సజ్": 8625,
      "ప్టర్": 8626,
      "అవమాని": 8627,
      "ఉపయోగించే": 8628,
      "మేనేజ్మెంట్": 8629,
      "డ్రెస్": 8630,
      "పండ్లు": 8631,
      "వస్తారు": 8632,
      "చిక్క": 8633,
      "వెస్ట్": 8634,
      "సేపటి": 8635,
      "అవయ": 8636,
      "ఉండవు": 8637,
      "ప్రాంతంలోని": 8638,
      "పథకాన్ని": 8639,
      "దుర్గ": 8640,
      "ద్వీప": 8641,
      "అసోసియేషన్": 8642,
      "కాంబినేషన్": 8643,
      "ఈసీ": 8644,
      "శస్త్ర": 8645,
      "సలి": 8646,
      "హూ": 8647,
      "వెన్": 8648,
      "స్థూ": 8649,
      "ష్టంగా": 8650,
      "శిలా": 8651,
      "పరమే": 8652,
      "సాధించ": 8653,
      "విశ్వసి": 8654,
      "కోల్పోయి": 8655,
      "తలెత్తి": 8656,
      "విడుదలకు": 8657,
      "వేరియం": 8658,
      "ద్వా": 8659,
      "పేజీ": 8660,
      "అంతు": 8661,
      "జరగడం": 8662,
      "కాలుష్యం": 8663,
      "పాశ్చా": 8664,
      "పదవిని": 8665,
      "స్తున్నాయని": 8666,
      "తల్లిని": 8667,
      "పత్రం": 8668,
      "పంటలు": 8669,
      "దృష్ట్యా": 8670,
      "మెగాస్టార్": 8671,
      "మావోయిస్టు": 8672,
      "స్టేడియంలో": 8673,
      "చదరపు": 8674,
      "అంచు": 8675,
      "కోన": 8676,
      "మునుగోడు": 8677,
      "శివసేన": 8678,
      "బాక్సాఫీస్": 8679,
      "ఖచ్చితంగా": 8680,
      "సదా": 8681,
      "విప్పి": 8682,
      "కోకుండా": 8683,
      "వెన్ను": 8684,
      "పేదరి": 8685,
      "మాదిరిగా": 8686,
      "దోహదం": 8687,
      "సామ్రాజ్యం": 8688,
      "కంట్రోల్": 8689,
      "ఆనంది": 8690,
      "గోల్డ్": 8691,
      "విద్యుత్తు": 8692,
      "దక్కింది": 8693,
      "వదిలేసి": 8694,
      "విపరీతంగా": 8695,
      "ఇంగ్లండ్": 8696,
      "ఔట్": 8697,
      "ప్రకార": 8698,
      "వచ్చేసింది": 8699,
      "జీర్ణ": 8700,
      "ందానికి": 8701,
      "ఫుట్": 8702,
      "నిజామాబాద్": 8703,
      "సీతారామ": 8704,
      "ఉత్తర్వులు": 8705,
      "అక్రమంగా": 8706,
      "ఐశ్వర్": 8707,
      "పోతున్నా": 8708,
      "నిర్వర్తి": 8709,
      "కలలు": 8710,
      "సౌదీ": 8711,
      "సంఘాల": 8712,
      "సూర్యుడు": 8713,
      "గమనించి": 8714,
      "యెల్": 8715,
      "మరొకటి": 8716,
      "డను": 8717,
      "పంద": 8718,
      "పలా": 8719,
      "వులలో": 8720,
      "వర్స్": 8721,
      "కిందకు": 8722,
      "రోజులపాటు": 8723,
      "నిందితులను": 8724,
      "నేతృత్వంలో": 8725,
      "అలంకరి": 8726,
      "అసిస్టెంట్": 8727,
      "రెగ్యులర్": 8728,
      "అక్కి": 8729,
      "సంగా": 8730,
      "అతనితో": 8731,
      "జరిపారు": 8732,
      "భీష్": 8733,
      "అండ": 8734,
      "పించే": 8735,
      "పెన్షన్": 8736,
      "చర్చకు": 8737,
      "కిలోల": 8738,
      "పురస్కారం": 8739,
      "మొత్తంగా": 8740,
      "చున్నాడు": 8741,
      "సీక్": 8742,
      "కోవటానికి": 8743,
      "బ్రో": 8744,
      "దారిలో": 8745,
      "బ్రాండ్": 8746,
      "శ్రీరాములు": 8747,
      "అతీ": 8748,
      "పాక్షిక": 8749,
      "సర్పంచిగా": 8750,
      "నుండే": 8751,
      "తాకి": 8752,
      "మార్కె": 8753,
      "అందరికి": 8754,
      "కనిపించిన": 8755,
      "నైతిక": 8756,
      "వ్యూహ": 8757,
      "ట్యూబ్": 8758,
      "జలా": 8759,
      "జనాలు": 8760,
      "బిఐ": 8761,
      "స్థితికి": 8762,
      "జీవితా": 8763,
      "నటించి": 8764,
      "వాళ్ళను": 8765,
      "వేయాలి": 8766,
      "ముగిసే": 8767,
      "పేదలకు": 8768,
      "భూషణ్": 8769,
      "చేయాలో": 8770,
      "కానున్న": 8771,
      "ష్క": 8772,
      "కలుసు": 8773,
      "ప్రభాకర్": 8774,
      "కాల్పు": 8775,
      "నొక్కి": 8776,
      "మరొకరు": 8777,
      "శత్రువు": 8778,
      "ఈటల": 8779,
      "రెక్క": 8780,
      "కావడానికి": 8781,
      "రంగారెడ్డి": 8782,
      "ఇంతవరకు": 8783,
      "పేటలో": 8784,
      "కట్టుబడి": 8785,
      "సానుభూతి": 8786,
      "డ్యు": 8787,
      "ంచుము": 8788,
      "మర్రి": 8789,
      "నటులు": 8790,
      "బిల్లును": 8791,
      "ఆశించిన": 8792,
      "వారీగా": 8793,
      "దినోత్సవం": 8794,
      "ఇస్తామని": 8795,
      "హంత": 8796,
      "రులతో": 8797,
      "రోజా": 8798,
      "గ్రామాల": 8799,
      "ఎస్సై": 8800,
      "ముఖంలో": 8801,
      "సాగుతోంది": 8802,
      "పాశ్చాత్య": 8803,
      "ఎయి": 8804,
      "తింటే": 8805,
      "సుర": 8806,
      "తాండ": 8807,
      "నలుగురి": 8808,
      "పోరాడ": 8809,
      "త్తీస్గఢ్": 8810,
      "పలక": 8811,
      "చేస్తారని": 8812,
      "వుంటాడు": 8813,
      "రెట్": 8814,
      "మూలి": 8815,
      "నెలకు": 8816,
      "కృత్రి": 8817,
      "చర్ల": 8818,
      "అందరు": 8819,
      "ంచుకున్నా": 8820,
      "పక్షం": 8821,
      "పెడుతున్నారు": 8822,
      "ఆంధ్రప్రదేశ్లో": 8823,
      "క్రియేట్": 8824,
      "దేవరకొండ": 8825,
      "అమృ": 8826,
      "కేబినెట్": 8827,
      "చేయటానికి": 8828,
      "పెట్టాలి": 8829,
      "ప్రేమలో": 8830,
      "శరీరానికి": 8831,
      "నిర్ణయించింది": 8832,
      "పనులను": 8833,
      "ఆరంభి": 8834,
      "సమ్మె": 8835,
      "పరిషత్": 8836,
      "కోమటి": 8837,
      "తేనె": 8838,
      "పరికర": 8839,
      "మూసుకు": 8840,
      "పొడ": 8841,
      "క్రమంలోనే": 8842,
      "మిక్రాన్": 8843,
      "ఆశ్చర్యంగా": 8844,
      "యాజమాన్": 8845,
      "అల్లా": 8846,
      "ఏదీ": 8847,
      "మరుగు": 8848,
      "ంచను": 8849,
      "పేట్": 8850,
      "గ్యాంగ్": 8851,
      "అత్యాచారం": 8852,
      "ఆవరణ": 8853,
      "ఐదో": 8854,
      "ళన": 8855,
      "లోపం": 8856,
      "అమ్మే": 8857,
      "విధానాలు": 8858,
      "చదివే": 8859,
      "81": 8860,
      "ఆచరి": 8861,
      "ఖే": 8862,
      "దంత": 8863,
      "స్తులను": 8864,
      "బావి": 8865,
      "జాబ్": 8866,
      "ఎదుగు": 8867,
      "ఎంతటి": 8868,
      "ప్రారంభంలో": 8869,
      "చేరుకో": 8870,
      "రిటైర్": 8871,
      "టన్నుల": 8872,
      "లేరని": 8873,
      "డ్లు": 8874,
      "హిమా": 8875,
      "మేనని": 8876,
      "జీఎస్టీ": 8877,
      "వలసింది": 8878,
      "మైక్రో": 8879,
      "ఖాయ": 8880,
      "ఏర్పాటుకు": 8881,
      "కోరుతూ": 8882,
      "ప్రక్రియను": 8883,
      "థ్రిల్లర్": 8884,
      "క్యారెక్టర్": 8885,
      "కోటా": 8886,
      "సమాఖ్య": 8887,
      "ఏర్పడ": 8888,
      "వైపులా": 8889,
      "ఉదయ": 8890,
      "ప్పుడల్లా": 8891,
      "గుండెల్లో": 8892,
      "చేస్తుంటారు": 8893,
      "వ్రాసిన": 8894,
      "వెంకటేష్": 8895,
      "ఎమో": 8896,
      "నంటే": 8897,
      "బందీ": 8898,
      "సంపాద": 8899,
      "ప్రతికూల": 8900,
      "పడగొట్ట": 8901,
      "అన్నట్లు": 8902,
      "స్వభావం": 8903,
      "చెందాడు": 8904,
      "ఫ్రెంచ్": 8905,
      "ద్రవ్యోల్బ": 8906,
      "కంది": 8907,
      "తన్": 8908,
      "నిధుల": 8909,
      "నీళ్ళ": 8910,
      "వరంలో": 8911,
      "జియా": 8912,
      "కొందరికి": 8913,
      "పోరాడు": 8914,
      "ఆసక్తిగా": 8915,
      "స్పందిస్తూ": 8916,
      "ల్యాండ్": 8917,
      "మానసికంగా": 8918,
      "రాత": 8919,
      "చూడు": 8920,
      "రీలు": 8921,
      "ప్రేమను": 8922,
      "పరిశ్రమలో": 8923,
      "కాలేజీలో": 8924,
      "తమైంది": 8925,
      "ఆకార": 8926,
      "ఉరు": 8927,
      "రాజశేఖర్": 8928,
      "అధిష్టా": 8929,
      "జరిగినా": 8930,
      "దర్శకుడిగా": 8931,
      "జరిమానా": 8932,
      "నినాదాలు": 8933,
      "తాలూకు": 8934,
      "అనీ": 8935,
      "లోకం": 8936,
      "మిశ్రా": 8937,
      "స్త్రీలు": 8938,
      "స్పష్టత": 8939,
      "అవార్డులు": 8940,
      "ఉద్యోగులకు": 8941,
      "హర్యానా": 8942,
      "ఇమ్రాన్": 8943,
      "స్తారా": 8944,
      "వహించారు": 8945,
      "అన్నట్టు": 8946,
      "వచ్చేది": 8947,
      "థియేటర్లలో": 8948,
      "థీ": 8949,
      "ారంటే": 8950,
      "తురు": 8951,
      "రానా": 8952,
      "వెయిట్": 8953,
      "వెళితే": 8954,
      "చెప్పాల్సిన": 8955,
      "శంకర": 8956,
      "పోలీసులను": 8957,
      "భాస్కర్": 8958,
      "ఊరే": 8959,
      "వత్తి": 8960,
      "షర": 8961,
      "ధాన్యం": 8962,
      "బిన్": 8963,
      "చర్మ": 8964,
      "రాజ్నాథ్": 8965,
      "పర్యవేక్షి": 8966,
      "ఆడియో": 8967,
      "చేత్తో": 8968,
      "భువన": 8969,
      "అందం": 8970,
      "పరీక్షల": 8971,
      "విశే్": 8972,
      "మరణించాడు": 8973,
      "పరిశీలించి": 8974,
      "తీసుకెళ్లి": 8975,
      "84": 8976,
      "శనగ": 8977,
      "ంచుకొ": 8978,
      "గణనీయంగా": 8979,
      "తెలియకుండా": 8980,
      "రాజేందర్": 8981,
      "కౌన్సిల్": 8982,
      "బదులుగా": 8983,
      "నవ్వ": 8984,
      "సాల్": 8985,
      "రాచ": 8986,
      "దుడు": 8987,
      "కార్మిక": 8988,
      "2017": 8989,
      "కనిపిస్తున్నాయి": 8990,
      "తీర్చ": 8991,
      "అందుకున్నారు": 8992,
      "హక్కులు": 8993,
      "ఆత్మీ": 8994,
      "ునిగా": 8995,
      "ఆవు": 8996,
      "లిస్ట్": 8997,
      "లింగం": 8998,
      "కాపురం": 8999,
      "భుజ": 9000,
      "కనిపించాడు": 9001,
      "వెళ్లింది": 9002,
      "స్వచ్ఛంద": 9003,
      "దౌత్య": 9004,
      "మగా": 9005,
      "జీవో": 9006,
      "గోవా": 9007,
      "ెక్ట్": 9008,
      "చేస్తున్నట్టు": 9009,
      "టైగర్": 9010,
      "ణుకు": 9011,
      "రొమా": 9012,
      "ఇస్తున్న": 9013,
      "దత్త": 9014,
      "ంచదు": 9015,
      "్రాన్ని": 9016,
      "షింగ్": 9017,
      "అభిమాన": 9018,
      "వెళ్లాడు": 9019,
      "ఉంటుందో": 9020,
      "సర్వీస్": 9021,
      "అవతరి": 9022,
      "మీదికి": 9023,
      "లతోపాటు": 9024,
      "చిత్రాల": 9025,
      "ఫిక్స్": 9026,
      "అవుతున్నారు": 9027,
      "అదేవిధంగా": 9028,
      "సబ్జెక్": 9029,
      "ప్రశ్నలకు": 9030,
      "భంగం": 9031,
      "క్షమి": 9032,
      "తీసుకెళ్": 9033,
      "నెలకొన్న": 9034,
      "మాత": 9035,
      "టాటా": 9036,
      "గర్వ": 9037,
      "పుస్తకాల": 9038,
      "పల్లెలో": 9039,
      "మత్స్య": 9040,
      "భ్రాంతి": 9041,
      "ఆదిలాబాద్": 9042,
      "ఆసీ": 9043,
      "మురి": 9044,
      "డాక్యు": 9045,
      "ఒకవైపు": 9046,
      "బయటపడ": 9047,
      "తెలుసుకుని": 9048,
      "కొట్టాడు": 9049,
      "జైలులో": 9050,
      "అగర్": 9051,
      "రద్దీ": 9052,
      "టిక్స్": 9053,
      "గుంపు": 9054,
      "పాన": 9055,
      "మిట": 9056,
      "ఒకడు": 9057,
      "క్కుని": 9058,
      "లక్నో": 9059,
      "ఎన్నడూ": 9060,
      "వీరిని": 9061,
      "దిగుమతి": 9062,
      "కరెంట్": 9063,
      "సాంప్రదాయ": 9064,
      "దివ్యాంగుల": 9065,
      "నేట్": 9066,
      "సులను": 9067,
      "మనవ": 9068,
      "శ్రీకారం": 9069,
      "లక్షలాది": 9070,
      "పట్టిన": 9071,
      "బాధ్యతను": 9072,
      "చేస్తున్నాం": 9073,
      "వాయువు": 9074,
      "వస్తాయని": 9075,
      "సంయుక్తంగా": 9076,
      "రాకెట్": 9077,
      "కార్యా": 9078,
      "వైనా": 9079,
      "జ్వరం": 9080,
      "అంతలో": 9081,
      "వస్తువుల": 9082,
      "హీరోలు": 9083,
      "ప్రీత్": 9084,
      "ఫెస్టో": 9085,
      "రోడ్లు": 9086,
      "ఫైనల్లో": 9087,
      "కేంద్రాలు": 9088,
      "జ్యం": 9089,
      "సరీ": 9090,
      "లుకు": 9091,
      "క్వార్": 9092,
      "మాద": 9093,
      "పేర": 9094,
      "క్రొ": 9095,
      "ఉండదని": 9096,
      "ెక్కి": 9097,
      "వాహనాల": 9098,
      "కునిగా": 9099,
      "ఘటనలు": 9100,
      "పోషించారు": 9101,
      "ణే": 9102,
      "నితిన్": 9103,
      "కోణంలో": 9104,
      "స్తారో": 9105,
      "దంపతులకు": 9106,
      "ంకర్": 9107,
      "జగ్గ": 9108,
      "తిర": 9109,
      "కొమ్మ": 9110,
      "ఏర్పర": 9111,
      "నిర్మిస్తున్నారు": 9112,
      "భార్యను": 9113,
      "పార్లమెంటరీ": 9114,
      "ఆనందాన్ని": 9115,
      "బస్సులు": 9116,
      "బాహుబలి": 9117,
      "ఆంధ": 9118,
      "ఒప్పి": 9119,
      "దగ్గు": 9120,
      "యనే": 9121,
      "మిర్చి": 9122,
      "చేయమని": 9123,
      "ఆమెతో": 9124,
      "ెక్స్": 9125,
      "తరుణ్": 9126,
      "నేపథ్యంలోనే": 9127,
      "డైరెక్ట్": 9128,
      "సహజంగా": 9129,
      "కస్టడీ": 9130,
      "97": 9131,
      "సెట్స్": 9132,
      "తప్పక": 9133,
      "రంగుల": 9134,
      "1980": 9135,
      "గనుక": 9136,
      "ఎండి": 9137,
      "ఝా": 9138,
      "తగ": 9139,
      "మళ్లి": 9140,
      "వందే": 9141,
      "ప్రమే": 9142,
      "ప్రదేశంలో": 9143,
      "రాగ": 9144,
      "దిల్": 9145,
      "యుక్త": 9146,
      "రెస్ట": 9147,
      "కెత్తి": 9148,
      "చెబుతున్న": 9149,
      "ఇందుకోసం": 9150,
      "సాహితీ": 9151,
      "స్థానాలకు": 9152,
      "శ్రేణి": 9153,
      "కుటుంబాలు": 9154,
      "సస్పెండ్": 9155,
      "ఏమిటంటే": 9156,
      "పేలుడు": 9157,
      "కవర్": 9158,
      "రియన్": 9159,
      "సుధీర్": 9160,
      "దుష్": 9161,
      "బోధన": 9162,
      "చేసేది": 9163,
      "2012": 9164,
      "బ్రిడ్": 9165,
      "ఎఫ్ఐ": 9166,
      "యూనివర్శి": 9167,
      "రమ్మని": 9168,
      "సిపి": 9169,
      "వాసి": 9170,
      "సావి": 9171,
      "జీతం": 9172,
      "విజయవంతంగా": 9173,
      "నిలిచారు": 9174,
      "వర్గంలో": 9175,
      "రాష్ట్రాన్ని": 9176,
      "ఉద్దేశంతో": 9177,
      "ఆలస్యంగా": 9178,
      "ఆపి": 9179,
      "ఒమిక్రాన్": 9180,
      "యంత్ర": 9181,
      "రోల్": 9182,
      "వెర్": 9183,
      "చూద్దాం": 9184,
      "గోధు": 9185,
      "ఆలోచించి": 9186,
      "అభిమానుల": 9187,
      "స్టీల్": 9188,
      "స్థలంలో": 9189,
      "సికింద్రా": 9190,
      "120": 9191,
      "బతు": 9192,
      "ుల్లో": 9193,
      "మియా": 9194,
      "చ్చాయి": 9195,
      "అందాల": 9196,
      "పడవ": 9197,
      "ఆలోచిస్తూ": 9198,
      "అమ్మాయిలు": 9199,
      "వీడియోను": 9200,
      "ప్రయోగం": 9201,
      "సిరీస్లో": 9202,
      "అభిప్రాయపడ్డారు": 9203,
      "కస్టమర్": 9204,
      "సచిన్": 9205,
      "జడ్జి": 9206,
      "మది": 9207,
      "సన్యా": 9208,
      "ర్జీ": 9209,
      "పుంజు": 9210,
      "సుధ": 9211,
      "ప్రాంతాలను": 9212,
      "ఇవ్వలేదు": 9213,
      "దారితీ": 9214,
      "దాడులకు": 9215,
      "చ్ఛి": 9216,
      "మమ్మల్ని": 9217,
      "సిస్ట": 9218,
      "ఇవ్వడానికి": 9219,
      "పరుగులకు": 9220,
      "వుండటం": 9221,
      "విధానాలను": 9222,
      "పర్యవేక్షణ": 9223,
      "96": 9224,
      "దమ్ము": 9225,
      "ప్రవీ": 9226,
      "హాసన్": 9227,
      "ఎదుట": 9228,
      "చర్యలకు": 9229,
      "ఉద్దేశం": 9230,
      "లేఖలో": 9231,
      "సలార్": 9232,
      "ప్రసారం": 9233,
      "ప్రస్తావన": 9234,
      "ఆఫీస్": 9235,
      "83": 9236,
      "ఆఖ": 9237,
      "టీం": 9238,
      "భువనే": 9239,
      "అంత్య": 9240,
      "విజయాలు": 9241,
      "న్యూయార్": 9242,
      "అభిమానం": 9243,
      "షోర్": 9244,
      "షర్మిల": 9245,
      "పనీ": 9246,
      "శౌ": 9247,
      "రుణాలు": 9248,
      "ములా": 9249,
      "కొచ్చాడు": 9250,
      "తెలిపాయి": 9251,
      "కెళ్లి": 9252,
      "ప్రతిబి": 9253,
      "అవినా": 9254,
      "వర్గాలకు": 9255,
      "పెరుగుదల": 9256,
      "సినిమాలతో": 9257,
      "లక్ష్యంతో": 9258,
      "ఆస్పత్రిలో": 9259,
      "అత్యుత్తమ": 9260,
      "కబుర్లు": 9261,
      "యిక": 9262,
      "రుణం": 9263,
      "రెప్ప": 9264,
      "బుర్ర": 9265,
      "2007": 9266,
      "పక్కకు": 9267,
      "మౌలిక": 9268,
      "ఇంగ్లీష్": 9269,
      "ఏళ్లుగా": 9270,
      "రాగి": 9271,
      "కాపీ": 9272,
      "నిర్మల": 9273,
      "చిత్రీకరణ": 9274,
      "పడుతున్నా": 9275,
      "ప్రేరే": 9276,
      "శుద్ధ": 9277,
      "సంఘటనా": 9278,
      "ధరల": 9279,
      "కంపెనీల": 9280,
      "వ్యాఖ్యలపై": 9281,
      "నిర్ణయించారు": 9282,
      "మహాత్మా": 9283,
      "రాయలసీమ": 9284,
      "అక్కినేని": 9285,
      "అదా": 9286,
      "కులుగా": 9287,
      "రెంట్": 9288,
      "ఎంజాయ్": 9289,
      "గిరిజ": 9290,
      "ఆచరణ": 9291,
      "ఉక్కు": 9292,
      "తలం": 9293,
      "పాడి": 9294,
      "ప్రతిష్టా": 9295,
      "ఉపసంహరి": 9296,
      "రోజుల్లోనే": 9297,
      "కదులు": 9298,
      "గట్టు": 9299,
      "భవం": 9300,
      "గాయాలు": 9301,
      "కిక": 9302,
      "ద్వై": 9303,
      "ళ్ళూ": 9304,
      "ంబో": 9305,
      "సర్వో": 9306,
      "వెంకట్రా": 9307,
      "భారతీయులు": 9308,
      "ఏజెన్సీ": 9309,
      "ఇంధన": 9310,
      "కార్తీక్": 9311,
      "86": 9312,
      "దిగ్గ": 9313,
      "వుతున్న": 9314,
      "సంధ్య": 9315,
      "భావాన్ని": 9316,
      "టోర్": 9317,
      "మాట్లాడటం": 9318,
      "నరేష్": 9319,
      "డెవలప్": 9320,
      "ఆపై": 9321,
      "ద్దే": 9322,
      "ఆయనతో": 9323,
      "తెలంగాణకు": 9324,
      "మధుమే": 9325,
      "వసతి": 9326,
      "కుశ": 9327,
      "సివిల్": 9328,
      "వాడీ": 9329,
      "వేర": 9330,
      "సరళ": 9331,
      "వస్తువులను": 9332,
      "లేకుండానే": 9333,
      "గొప్పగా": 9334,
      "ఐదేళ్ల": 9335,
      "అరణ": 9336,
      "ఆగింది": 9337,
      "ఏమో": 9338,
      "నప్పుడు": 9339,
      "మ్ర": 9340,
      "దిగింది": 9341,
      "తనలో": 9342,
      "చేయలేదని": 9343,
      "గుర్తించిన": 9344,
      "మాధ్యమ": 9345,
      "కోల్కతా": 9346,
      "తడ": 9347,
      "రచ్చ": 9348,
      "వల్లి": 9349,
      "రంజన్": 9350,
      "మినహా": 9351,
      "రెండింటి": 9352,
      "ఎలాగైనా": 9353,
      "ప్రత్తి": 9354,
      "వుంటా": 9355,
      "మీటింగ్": 9356,
      "పరిశ్ర": 9357,
      "మార్టం": 9358,
      "శంకు": 9359,
      "ఆప్యా": 9360,
      "ఎంటర్టైన": 9361,
      "దోహద": 9362,
      "కనె": 9363,
      "శాలకు": 9364,
      "చెరి": 9365,
      "చురు": 9366,
      "ఉన్నందున": 9367,
      "అవంతి": 9368,
      "టాన్": 9369,
      "చిత్రంతో": 9370,
      "చెప్పండి": 9371,
      "తీసుకుంటామని": 9372,
      "బెల్లం": 9373,
      "ఛార్జ్": 9374,
      "ాలన్నా": 9375,
      "మాటా": 9376,
      "దేహ": 9377,
      "ట్టింది": 9378,
      "నియమ": 9379,
      "ఠాకూర్": 9380,
      "అరేబియా": 9381,
      "సత్యా": 9382,
      "చేయాలన్న": 9383,
      "అంతటా": 9384,
      "అందిస్తుంది": 9385,
      "ందామె": 9386,
      "కాలుష్య": 9387,
      "రాత్రికి": 9388,
      "ఇంటర్నెట్": 9389,
      "పరుగులకే": 9390,
      "సమ్మేళ": 9391,
      "మూడేళ్ల": 9392,
      "న్నింటినీ": 9393,
      "లిమిటెడ్": 9394,
      "250": 9395,
      "నిర్ది": 9396,
      "ప్రాణా": 9397,
      "ప్రతిష్ట": 9398,
      "పనిని": 9399,
      "క్షిప": 9400,
      "ప్రయాణీ": 9401,
      "నడుస్తోంది": 9402,
      "చక్కటి": 9403,
      "ప్లేయర్": 9404,
      "మెత్తారు": 9405,
      "ఎస్టేట్": 9406,
      "భయా": 9407,
      "దేశీ": 9408,
      "పార్కు": 9409,
      "కళ్యాణ": 9410,
      "కెరీర్లో": 9411,
      "9లో": 9412,
      "గబా": 9413,
      "బ్య": 9414,
      "నిఫెస్టో": 9415,
      "మాఫీ": 9416,
      "సునా": 9417,
      "గణపతి": 9418,
      "ఇకపై": 9419,
      "అందించింది": 9420,
      "నిర్ణీ": 9421,
      "హోమ్": 9422,
      "సింగిల్": 9423,
[...]
